<pad>	0
<unk>	0
<s>	0
</s>	0
<0x00>	0
<0x01>	0
<0x02>	0
<0x03>	0
<0x04>	0
<0x05>	0
<0x06>	0
<0x07>	0
<0x08>	0
<0x09>	0
<0x0A>	0
<0x0B>	0
<0x0C>	0
<0x0D>	0
<0x0E>	0
<0x0F>	0
<0x10>	0
<0x11>	0
<0x12>	0
<0x13>	0
<0x14>	0
<0x15>	0
<0x16>	0
<0x17>	0
<0x18>	0
<0x19>	0
<0x1A>	0
<0x1B>	0
<0x1C>	0
<0x1D>	0
<0x1E>	0
<0x1F>	0
<0x20>	0
<0x21>	0
<0x22>	0
<0x23>	0
<0x24>	0
<0x25>	0
<0x26>	0
<0x27>	0
<0x28>	0
<0x29>	0
<0x2A>	0
<0x2B>	0
<0x2C>	0
<0x2D>	0
<0x2E>	0
<0x2F>	0
<0x30>	0
<0x31>	0
<0x32>	0
<0x33>	0
<0x34>	0
<0x35>	0
<0x36>	0
<0x37>	0
<0x38>	0
<0x39>	0
<0x3A>	0
<0x3B>	0
<0x3C>	0
<0x3D>	0
<0x3E>	0
<0x3F>	0
<0x40>	0
<0x41>	0
<0x42>	0
<0x43>	0
<0x44>	0
<0x45>	0
<0x46>	0
<0x47>	0
<0x48>	0
<0x49>	0
<0x4A>	0
<0x4B>	0
<0x4C>	0
<0x4D>	0
<0x4E>	0
<0x4F>	0
<0x50>	0
<0x51>	0
<0x52>	0
<0x53>	0
<0x54>	0
<0x55>	0
<0x56>	0
<0x57>	0
<0x58>	0
<0x59>	0
<0x5A>	0
<0x5B>	0
<0x5C>	0
<0x5D>	0
<0x5E>	0
<0x5F>	0
<0x60>	0
<0x61>	0
<0x62>	0
<0x63>	0
<0x64>	0
<0x65>	0
<0x66>	0
<0x67>	0
<0x68>	0
<0x69>	0
<0x6A>	0
<0x6B>	0
<0x6C>	0
<0x6D>	0
<0x6E>	0
<0x6F>	0
<0x70>	0
<0x71>	0
<0x72>	0
<0x73>	0
<0x74>	0
<0x75>	0
<0x76>	0
<0x77>	0
<0x78>	0
<0x79>	0
<0x7A>	0
<0x7B>	0
<0x7C>	0
<0x7D>	0
<0x7E>	0
<0x7F>	0
<0x80>	0
<0x81>	0
<0x82>	0
<0x83>	0
<0x84>	0
<0x85>	0
<0x86>	0
<0x87>	0
<0x88>	0
<0x89>	0
<0x8A>	0
<0x8B>	0
<0x8C>	0
<0x8D>	0
<0x8E>	0
<0x8F>	0
<0x90>	0
<0x91>	0
<0x92>	0
<0x93>	0
<0x94>	0
<0x95>	0
<0x96>	0
<0x97>	0
<0x98>	0
<0x99>	0
<0x9A>	0
<0x9B>	0
<0x9C>	0
<0x9D>	0
<0x9E>	0
<0x9F>	0
<0xA0>	0
<0xA1>	0
<0xA2>	0
<0xA3>	0
<0xA4>	0
<0xA5>	0
<0xA6>	0
<0xA7>	0
<0xA8>	0
<0xA9>	0
<0xAA>	0
<0xAB>	0
<0xAC>	0
<0xAD>	0
<0xAE>	0
<0xAF>	0
<0xB0>	0
<0xB1>	0
<0xB2>	0
<0xB3>	0
<0xB4>	0
<0xB5>	0
<0xB6>	0
<0xB7>	0
<0xB8>	0
<0xB9>	0
<0xBA>	0
<0xBB>	0
<0xBC>	0
<0xBD>	0
<0xBE>	0
<0xBF>	0
<0xC0>	0
<0xC1>	0
<0xC2>	0
<0xC3>	0
<0xC4>	0
<0xC5>	0
<0xC6>	0
<0xC7>	0
<0xC8>	0
<0xC9>	0
<0xCA>	0
<0xCB>	0
<0xCC>	0
<0xCD>	0
<0xCE>	0
<0xCF>	0
<0xD0>	0
<0xD1>	0
<0xD2>	0
<0xD3>	0
<0xD4>	0
<0xD5>	0
<0xD6>	0
<0xD7>	0
<0xD8>	0
<0xD9>	0
<0xDA>	0
<0xDB>	0
<0xDC>	0
<0xDD>	0
<0xDE>	0
<0xDF>	0
<0xE0>	0
<0xE1>	0
<0xE2>	0
<0xE3>	0
<0xE4>	0
<0xE5>	0
<0xE6>	0
<0xE7>	0
<0xE8>	0
<0xE9>	0
<0xEA>	0
<0xEB>	0
<0xEC>	0
<0xED>	0
<0xEE>	0
<0xEF>	0
<0xF0>	0
<0xF1>	0
<0xF2>	0
<0xF3>	0
<0xF4>	0
<0xF5>	0
<0xF6>	0
<0xF7>	0
<0xF8>	0
<0xF9>	0
<0xFA>	0
<0xFB>	0
<0xFC>	0
<0xFD>	0
<0xFE>	0
<0xFF>	0
ar	-0
an	-1
er	-2
▁b	-3
in	-4
ın	-5
de	-6
▁k	-7
▁s	-8
il	-9
▁y	-10
al	-11
en	-12
da	-13
ir	-14
▁g	-15
▁t	-16
ak	-17
▁i	-18
▁o	-19
lar	-20
el	-21
ma	-22
▁v	-23
la	-24
et	-25
ek	-26
▁a	-27
▁h	-28
di	-29
un	-30
▁m	-31
or	-32
ler	-33
▁d	-34
es	-35
on	-36
iy	-37
dı	-38
at	-39
▁ve	-40
ur	-41
▁ç	-42
ay	-43
le	-44
li	-45
▁de	-46
▁bir	-47
as	-48
aş	-49
ün	-50
ıl	-51
ür	-52
im	-53
ık	-54
ul	-55
▁p	-56
iz	-57
em	-58
▁ol	-59
▁ö	-60
ap	-61
▁e	-62
st	-63
am	-64
ır	-65
inde	-66
ik	-67
ış	-68
ında	-69
▁da	-70
▁f	-71
▁il	-72
▁al	-73
dan	-74
ey	-75
iş	-76
▁ş	-77
▁gö	-78
ya	-79
ını	-80
um	-81
az	-82
▁ar	-83
ım	-84
▁bu	-85
ti	-86
ini	-87
▁n	-88
du	-89
▁i̇	-90
ki	-91
den	-92
▁baş	-93
üz	-94
▁c	-95
yor	-96
ağ	-97
ab	-98
▁yap	-99
sı	-100
it	-101
ine	-102
lan	-103
ec	-104
lı	-105
▁iç	-106
▁r	-107
ok	-108
esi	-109
tı	-110
ol	-111
▁an	-112
▁1	-113
ük	-114
▁2	-115
ah	-116
ları	-117
ına	-118
▁kar	-119
ül	-120
is	-121
ğı	-122
uz	-123
iler	-124
inin	-125
▁gör	-126
ız	-127
alar	-128
ği	-129
onu	-130
oğ	-131
▁et	-132
▁z	-133
af	-134
anı	-135
leri	-136
şt	-137
ev	-138
eler	-139
üm	-140
▁"	-141
ının	-142
eç	-143
cak	-144
▁için	-145
▁ön	-146
ta	-147
▁gel	-148
ez	-149
ön	-150
ından	-151
▁oldu	-152
iye	-153
▁ver	-154
▁ma	-155
uk	-156
▁di	-157
iyor	-158
ut	-159
ürk	-160
▁bel	-161
▁ay	-162
▁ile	-163
lik	-164
▁son	-165
▁aç	-166
te	-167
av	-168
▁u	-169
ad	-170
▁yıl	-171
len	-172
dır	-173
▁ger	-174
ması	-175
unu	-176
▁tar	-177
dir	-178
▁en	-179
mak	-180
▁türk	-181
i̇	-182
▁or	-183
öy	-184
me	-185
lu	-186
ce	-187
▁konu	-188
üy	-189
▁bul	-190
▁kur	-191
ade	-192
se	-193
▁gün	-194
▁başk	-195
▁yer	-196
▁bil	-197
▁sür	-198
us	-199
larak	-200
man	-201
op	-202
lık	-203
ha	-204
cı	-205
▁20	-206
ip	-207
laş	-208
ye	-209
▁ne	-210
▁ak	-211
▁ed	-212
▁değ	-213
üş	-214
lay	-215
▁yar	-216
▁olduğ	-217
▁yaş	-218
▁in	-219
ların	-220
▁kay	-221
mas	-222
ası	-223
ör	-224
▁olarak	-225
ili	-226
▁geç	-227
▁çal	-228
yla	-229
ra	-230
ro	-231
▁kal	-232
▁mü	-233
▁mil	-234
▁çık	-235
▁ek	-236
ildi	-237
tan	-238
▁iş	-239
▁kad	-240
nin	-241
edi	-242
yon	-243
▁ko	-244
ib	-245
ıyor	-246
▁dev	-247
ilm	-248
▁çok	-249
▁er	-250
▁çalış	-251
▁par	-252
▁(	-253
imiz	-254
ıs	-255
öyle	-256
iyle	-257
ğini	-258
▁“	-259
▁öz	-260
eh	-261
▁açık	-262
eni	-263
let	-264
ken	-265
▁ist	-266
ede	-267
▁türkiye	-268
ılan	-269
lü	-270
mek	-271
eb	-272
ada	-273
▁daha	-274
▁üz	-275
▁olan	-276
ımız	-277
▁bak	-278
▁yön	-279
▁el	-280
ecek	-281
▁top	-282
dığı	-283
ece	-284
▁3	-285
inden	-286
▁belir	-287
▁ken	-288
▁kul	-289
▁bulun	-290
ama	-291
eş	-292
▁büy	-293
malar	-294
▁üzer	-295
ci	-296
tır	-297
lama	-298
ru	-299
ilen	-300
▁gen	-301
asında	-302
ca	-303
▁var	-304
os	-305
uş	-306
mış	-307
▁yan	-308
alı	-309
unda	-310
▁sağ	-311
▁'	-312
▁karş	-313
▁sor	-314
ist	-315
eye	-316
▁her	-317
dığ	-318
▁gü	-319
aya	-320
iyet	-321
aç	-322
▁pro	-323
▁uy	-324
larını	-325
▁hal	-326
cu	-327
om	-328
▁bin	-329
▁ül	-330
cağ	-331
öl	-332
▁dur	-333
▁yak	-334
▁kat	-335
lerin	-336
üt	-337
▁ise	-338
öz	-339
ih	-340
▁yüz	-341
▁büyük	-342
arı	-343
ibi	-344
erek	-345
▁dön	-346
tir	-347
▁hak	-348
eri	-349
▁tek	-350
lerini	-351
▁kullan	-352
..	-353
dür	-354
ğr	-355
ed	-356
▁oy	-357
nın	-358
si	-359
▁hay	-360
▁taraf	-361
▁yeni	-362
san	-363
▁say	-364
▁kap	-365
miş	-366
▁böl	-367
▁ab	-368
▁ülk	-369
▁kiş	-370
▁gerek	-371
unun	-372
ep	-373
▁su	-374
aber	-375
esinde	-376
maya	-377
aman	-378
sa	-379
lara	-380
men	-381
▁doğ	-382
▁has	-383
▁etti	-384
▁kon	-385
▁li	-386
▁biz	-387
▁söyle	-388
▁belirt	-389
yan	-390
▁mer	-391
▁sah	-392
ilir	-393
eli	-394
▁dün	-395
met	-396
▁po	-397
id	-398
üs	-399
▁on	-400
▁ola	-401
▁mu	-402
arak	-403
lem	-404
▁at	-405
▁kadar	-406
anlı	-407
▁as	-408
▁ilg	-409
▁5	-410
▁sonra	-411
▁dedi	-412
▁if	-413
▁ev	-414
▁4	-415
ılı	-416
▁düş	-417
▁gibi	-418
▁do	-419
uşt	-420
▁tak	-421
▁düz	-422
▁ama	-423
dım	-424
▁alan	-425
00	-426
ran	-427
▁karşı	-428
kin	-429
▁ü	-430
etim	-431
▁başkanı	-432
isi	-433
▁san	-434
dü	-435
ark	-436
▁neden	-437
ladı	-438
çek	-439
▁alt	-440
▁es	-441
▁kor	-442
stan	-443
▁olduğunu	-444
▁ifade	-445
▁yol	-446
▁av	-447
ef	-448
tr	-449
ers	-450
dığını	-451
▁yaptı	-452
▁öğr	-453
▁haber	-454
una	-455
▁201	-456
▁sal	-457
yi	-458
▁göre	-459
▁uz	-460
diği	-461
ıldı	-462
▁bo	-463
hal	-464
elik	-465
▁ort	-466
▁zaman	-467
▁tem	-468
ğu	-469
▁gir	-470
if	-471
▁ad	-472
▁devam	-473
▁cum	-474
hur	-475
ic	-476
bul	-477
▁söz	-478
yı	-479
▁den	-480
▁ilk	-481
ne	-482
tik	-483
▁bur	-484
▁olma	-485
lat	-486
▁sav	-487
acak	-488
▁tarafından	-489
▁ür	-490
etir	-491
▁seç	-492
▁-	-493
▁ben	-494
▁şek	-495
▁çek	-496
larının	-497
▁beledi	-498
▁getir	-499
▁gerçek	-500
▁yük	-501
▁kaz	-502
uy	-503
▁cumhur	-504
▁bağ	-505
▁yaz	-506
▁önem	-507
▁em	-508
deki	-509
▁bölg	-510
▁olduğu	-511
▁göst	-512
ter	-513
aat	-514
iv	-515
▁genel	-516
tar	-517
▁ter	-518
ştir	-519
larda	-520
▁l	-521
▁yüzde	-522
sel	-523
ven	-524
▁ilgili	-525
▁ot	-526
gu	-527
leş	-528
▁ser	-529
▁poli	-530
bir	-531
gi	-532
▁eğ	-533
ten	-534
▁alın	-535
▁sır	-536
▁ço	-537
oğlu	-538
aret	-539
lam	-540
▁düzen	-541
ara	-542
stanbul	-543
▁özel	-544
▁ok	-545
▁kendi	-546
rup	-547
."	-548
▁aş	-549
çe	-550
mesi	-551
ısı	-552
por	-553
▁göster	-554
ot	-555
uştur	-556
▁edi	-557
▁6	-558
▁yapılan	-559
der	-560
▁der	-561
▁haz	-562
▁art	-563
re	-564
dar	-565
▁göz	-566
baş	-567
liği	-568
ram	-569
▁durum	-570
▁arasında	-571
▁har	-572
▁tut	-573
▁i̇stanbul	-574
==	-575
▁yay	-576
▁şu	-577
alan	-578
▁kurul	-579
uyor	-580
▁ayr	-581
▁gaz	-582
▁ard	-583
lere	-584
dik	-585
iç	-586
▁sev	-587
▁insan	-588
▁abd	-589
gün	-590
▁merk	-591
▁dış	-592
▁değil	-593
▁kan	-594
▁j	-595
han	-596
▁hayat	-597
üyor	-598
▁karar	-599
▁ardından	-600
▁kam	-601
dık	-602
atan	-603
yal	-604
▁yet	-605
lerinin	-606
sız	-607
▁öl	-608
eyi	-609
▁güven	-610
tal	-611
▁hem	-612
▁az	-613
▁dest	-614
▁ih	-615
eleri	-616
▁öğren	-617
▁merkez	-618
doğ	-619
▁i̇s	-620
▁tüm	-621
▁sonu	-622
▁bek	-623
▁tarih	-624
▁ör	-625
▁görev	-626
larına	-627
art	-628
▁ün	-629
üp	-630
▁önce	-631
ındaki	-632
na	-633
▁dönem	-634
mir	-635
esine	-636
ıla	-637
daki	-638
▁birlik	-639
▁diye	-640
▁i̇l	-641
▁eden	-642
▁yok	-643
bil	-644
cuk	-645
▁önemli	-646
▁bulundu	-647
ileri	-648
▁tr	-649
▁değer	-650
▁mes	-651
▁7	-652
▁olay	-653
▁19	-654
▁ada	-655
▁i̇n	-656
▁söyledi	-657
▁ediyor	-658
▁gelen	-659
lerine	-660
yen	-661
daş	-662
ehir	-663
▁konus	-664
▁duy	-665
▁dav	-666
▁devlet	-667
iyas	-668
▁parti	-669
ac	-670
▁çocuk	-671
▁iki	-672
iniz	-673
lendir	-674
▁bas	-675
▁açıklama	-676
▁saat	-677
▁kim	-678
▁ancak	-679
kk	-680
▁milyon	-681
▁kr	-682
leştir	-683
▁değiş	-684
▁vatan	-685
▁hat	-686
▁ağ	-687
▁millet	-688
ğü	-689
▁haf	-690
nı	-691
▁şekil	-692
asyon	-693
▁cez	-694
lerde	-695
▁hakk	-696
▁faz	-697
▁hav	-698
itim	-699
▁iliş	-700
eti	-701
ilerin	-702
▁başkan	-703
▁zor	-704
iyat	-705
▁ede	-706
▁mah	-707
▁tes	-708
▁yardım	-709
ıp	-710
esini	-711
det	-712
doğan	-713
▁taş	-714
başk	-715
ünde	-716
nde	-717
sun	-718
tör	-719
...	-720
▁fark	-721
ğer	-722
▁8	-723
▁konuş	-724
▁eş	-725
▁eğitim	-726
▁kö	-727
▁is	-728
▁fazla	-729
▁iz	-730
▁şekilde	-731
▁bugün	-732
acağ	-733
siz	-734
▁dil	-735
liğ	-736
▁müdür	-737
ünü	-738
ov	-739
dur	-740
larında	-741
enin	-742
anlığı	-743
▁dünya	-744
▁geldi	-745
▁geliş	-746
20	-747
masını	-748
ddi	-749
▁birlikte	-750
▁oyun	-751
▁destek	-752
▁sağlık	-753
tü	-754
azı	-755
larımız	-756
▁seçim	-757
▁kayb	-758
lerinde	-759
▁tur	-760
▁10	-761
layan	-762
esinin	-763
▁ban	-764
▁vatandaş	-765
▁erdoğan	-766
ans	-767
▁bun	-768
▁yapıl	-769
▁im	-770
nun	-771
▁ekip	-772
▁yaptığı	-773
▁cumhurbaşk	-774
▁suç	-775
▁içinde	-776
▁şey	-777
▁çalışmalar	-778
alık	-779
maz	-780
▁görüş	-781
cü	-782
olo	-783
▁kazan	-784
▁hazır	-785
▁ul	-786
▁sos	-787
▁edildi	-788
meye	-789
sek	-790
▁kom	-791
up	-792
oy	-793
▁kadın	-794
larla	-795
▁aynı	-796
▁proj	-797
▁avrup	-798
tür	-799
▁çıkar	-800
▁sat	-801
▁pay	-802
masına	-803
▁kab	-804
ika	-805
▁konuşt	-806
▁müc	-807
▁kişi	-808
▁tal	-809
▁güç	-810
▁üy	-811
▁tan	-812
istem	-813
ımı	-814
▁yas	-815
▁vur	-816
▁iyi	-817
▁maç	-818
▁w	-819
▁ark	-820
▁kes	-821
ulan	-822
▁mal	-823
▁bulunan	-824
bu	-825
▁yür	-826
ğimiz	-827
▁hük	-828
▁diğer	-829
▁çev	-830
▁düşün	-831
eki	-832
▁muh	-833
onom	-834
ilik	-835
▁mücade	-836
ılık	-837
▁avrupa	-838
▁saldır	-839
▁toplan	-840
▁sosyal	-841
▁tekn	-842
▁hiç	-843
▁konuştu	-844
ğını	-845
▁ki	-846
▁kayn	-847
lenen	-848
▁tama	-849
▁sistem	-850
▁üzerine	-851
▁belediye	-852
▁nedeniyle	-853
▁kaç	-854
▁önc	-855
▁bay	-856
gan	-857
▁üst	-858
▁sahip	-859
▁ilç	-860
eyen	-861
dem	-862
olu	-863
tık	-864
▁am	-865
▁polis	-866
lardan	-867
▁fa	-868
▁halk	-869
ilmesi	-870
sam	-871
▁bilg	-872
▁yönetim	-873
iliyor	-874
kan	-875
bilir	-876
▁olmak	-877
▁siyas	-878
▁yaklaş	-879
▁kıs	-880
▁yat	-881
▁9	-882
oloj	-883
bak	-884
ayı	-885
▁verdi	-886
kkat	-887
yar	-888
raf	-889
ütün	-890
▁yaşan	-891
▁olacak	-892
▁görün	-893
▁bar	-894
emiz	-895
▁ik	-896
▁ey	-897
▁15	-898
▁dikkat	-899
▁açıkla	-900
▁içer	-901
▁hiz	-902
▁ulus	-903
▁ekonom	-904
ivers	-905
iversit	-906
▁ail	-907
ret	-908
bar	-909
▁sen	-910
▁ulaş	-911
▁terör	-912
ıcı	-913
▁bunun	-914
lanan	-915
▁mahk	-916
▁tel	-917
ket	-918
tığı	-919
▁yüksek	-920
▁met	-921
▁ayrı	-922
▁genç	-923
▁ber	-924
▁te	-925
▁harek	-926
▁ask	-927
luk	-928
▁üniversit	-929
indeki	-930
▁hüküm	-931
iyoruz	-932
ide	-933
eme	-934
▁gazet	-935
▁iddi	-936
kil	-937
imi	-938
▁hastan	-939
▁geçen	-940
cel	-941
▁örg	-942
likle	-943
ektör	-944
--	-945
hp	-946
ilecek	-947
▁hizmet	-948
▁gön	-949
▁bazı	-950
ırak	-951
▁sur	-952
üne	-953
ıda	-954
lah	-955
aları	-956
▁geçir	-957
▁tah	-958
▁bırak	-959
▁ya	-960
▁gerçekleştir	-961
est	-962
▁mo	-963
van	-964
▁alman	-965
atı	-966
▁sade	-967
gel	-968
pr	-969
▁sonr	-970
eceğ	-971
▁nas	-972
uv	-973
mıştı	-974
▁rus	-975
per	-976
▁günü	-977
▁kapsam	-978
▁tab	-979
▁üzere	-980
kara	-981
-1	-982
▁kır	-983
bol	-984
manın	-985
▁git	-986
gram	-987
▁ortaya	-988
alt	-989
▁sadece	-990
▁uyg	-991
istan	-992
nda	-993
▁plan	-994
edef	-995
▁af	-996
▁paylaş	-997
okt	-998
▁şir	-999
▁ziy	-1000
▁belediy	-1001
▁sık	-1002
▁uygu	-1003
▁yakın	-1004
▁açıklamada	-1005
aştır	-1006
▁yılında	-1007
▁kas	-1008
▁hedef	-1009
▁mey	-1010
masının	-1011
▁yapan	-1012
ılması	-1013
▁boy	-1014
çi	-1015
meler	-1016
ağı	-1017
mi	-1018
usu	-1019
▁kız	-1020
anın	-1021
▁üç	-1022
▁spor	-1023
tin	-1024
kü	-1025
▁teş	-1026
▁böyle	-1027
▁yönelik	-1028
▁araştır	-1029
▁değerlendir	-1030
▁veya	-1031
gil	-1032
işim	-1033
▁can	-1034
▁yanı	-1035
====	-1036
gı	-1037
iyon	-1038
▁cumhurbaşkanı	-1039
lığı	-1040
▁sil	-1041
▁başla	-1042
▁tamam	-1043
▁doğru	-1044
▁mücadele	-1045
▁kurum	-1046
▁mut	-1047
ali	-1048
▁iht	-1049
▁kez	-1050
▁mar	-1051
▁bey	-1052
▁202	-1053
▁ele	-1054
eceği	-1055
▁kaynak	-1056
▁lir	-1057
▁bah	-1058
▁eski	-1059
▁ankara	-1060
▁la	-1061
▁med	-1062
vek	-1063
▁hakkında	-1064
▁sun	-1065
▁sı	-1066
ilmiş	-1067
ülen	-1068
orm	-1069
lum	-1070
isinde	-1071
▁katıl	-1072
mayı	-1073
▁tür	-1074
▁konusunda	-1075
lük	-1076
lerimiz	-1077
eceğini	-1078
▁anlaş	-1079
▁savaş	-1080
be	-1081
üşt	-1082
▁kı	-1083
▁edilen	-1084
▁araç	-1085
ley	-1086
▁yönet	-1087
▁çağ	-1088
▁toplantı	-1089
landı	-1090
▁öğrenc	-1091
▁bakanı	-1092
▁dr	-1093
▁bakan	-1094
▁dak	-1095
larından	-1096
▁takım	-1097
▁burada	-1098
lerle	-1099
asar	-1100
ulu	-1101
▁ziyaret	-1102
▁sonuç	-1103
laşt	-1104
lim	-1105
▁deniz	-1106
▁kend	-1107
▁man	-1108
▁dem	-1109
ilere	-1110
▁şeh	-1111
▁vak	-1112
▁güvenlik	-1113
urt	-1114
▁bildir	-1115
taş	-1116
uma	-1117
▁milli	-1118
las	-1119
arası	-1120
diğini	-1121
sal	-1122
▁ilişkin	-1123
▁nasıl	-1124
çok	-1125
eden	-1126
▁mahal	-1127
▁başladı	-1128
gın	-1129
cek	-1130
▁200	-1131
▁çıktı	-1132
▁uç	-1133
▁güz	-1134
oğun	-1135
▁yaklaşık	-1136
▁ülkeler	-1137
▁yayın	-1138
lerinden	-1139
▁siz	-1140
yonu	-1141
kı	-1142
▁savun	-1143
▁bölüm	-1144
▁kabul	-1145
▁hes	-1146
▁farklı	-1147
ınır	-1148
dana	-1149
▁bütün	-1150
eğ	-1151
▁bit	-1152
▁örgüt	-1153
tif	-1154
▁istedi	-1155
▁uzun	-1156
▁sürdür	-1157
ümüz	-1158
▁cumhuriyet	-1159
▁oluştur	-1160
▁ağır	-1161
▁aldı	-1162
▁11	-1163
▁program	-1164
▁i̇ş	-1165
▁kil	-1166
lak	-1167
irüs	-1168
ri	-1169
▁mev	-1170
▁fut	-1171
▁hareket	-1172
adaş	-1173
▁ceza	-1174
▁mad	-1175
▁oper	-1176
lerden	-1177
▁bunu	-1178
▁şöyle	-1179
▁i̇z	-1180
lığ	-1181
▁hafta	-1182
mişti	-1183
ob	-1184
▁dolay	-1185
lüğü	-1186
iyorum	-1187
▁şim	-1188
▁üzerinde	-1189
▁12	-1190
çı	-1191
maları	-1192
▁gal	-1193
▁ah	-1194
asına	-1195
▁silah	-1196
rak	-1197
▁bab	-1198
okr	-1199
▁olur	-1200
▁bizim	-1201
▁yaşam	-1202
▁olması	-1203
ener	-1204
▁sınır	-1205
▁şirket	-1206
makta	-1207
▁süre	-1208
ılacak	-1209
▁arkadaş	-1210
▁hep	-1211
▁kaldır	-1212
▁han	-1213
▁orta	-1214
tiğini	-1215
şehir	-1216
▁film	-1217
▁kül	-1218
0'	-1219
▁sar	-1220
▁kontr	-1221
kes	-1222
▁hız	-1223
sini	-1224
▁bank	-1225
ırım	-1226
▁yerine	-1227
ayan	-1228
▁kür	-1229
▁meh	-1230
ahat	-1231
▁müz	-1232
▁mec	-1233
▁çöz	-1234
▁sorun	-1235
malı	-1236
▁0	-1237
▁çalışan	-1238
.”	-1239
▁bor	-1240
ch	-1241
rar	-1242
▁gönder	-1243
▁biri	-1244
▁futbol	-1245
lararası	-1246
▁chp	-1247
▁teh	-1248
▁yen	-1249
▁güzel	-1250
oğraf	-1251
ınız	-1252
▁başbak	-1253
▁yüksel	-1254
▁ayrıca	-1255
▁kontrol	-1256
▁etm	-1257
sin	-1258
▁üret	-1259
umuz	-1260
can	-1261
▁çar	-1262
▁paz	-1263
ğunu	-1264
ünün	-1265
▁hükümet	-1266
▁isim	-1267
▁etmek	-1268
esiyle	-1269
▁milletvek	-1270
tiği	-1271
eci	-1272
üph	-1273
dav	-1274
leme	-1275
kinci	-1276
▁tutuk	-1277
▁toplum	-1278
laştır	-1279
▁etk	-1280
▁dir	-1281
apor	-1282
gin	-1283
▁sez	-1284
▁rusya	-1285
▁sok	-1286
▁birçok	-1287
ça	-1288
suz	-1289
▁başka	-1290
▁kullandı	-1291
▁din	-1292
su	-1293
ge	-1294
▁grup	-1295
▁uluslararası	-1296
fa	-1297
▁kav	-1298
▁res	-1299
i̇n	-1300
▁kapsamında	-1301
▁iti	-1302
▁yağ	-1303
▁şüph	-1304
▁kent	-1305
▁mehmet	-1306
üldü	-1307
lo	-1308
▁hava	-1309
▁özellikle	-1310
▁milyar	-1311
▁sel	-1312
▁olduk	-1313
▁yardımcı	-1314
▁fiyat	-1315
▁kü	-1316
▁mak	-1317
sil	-1318
▁kit	-1319
muş	-1320
▁sab	-1321
▁ir	-1322
▁yeniden	-1323
talya	-1324
▁medya	-1325
tay	-1326
▁sak	-1327
▁fran	-1328
▁dar	-1329
▁dair	-1330
duğu	-1331
▁kamu	-1332
▁ihtiy	-1333
vur	-1334
▁kaybet	-1335
ıt	-1336
▁çıkan	-1337
mız	-1338
▁fin	-1339
▁tep	-1340
▁kültür	-1341
aj	-1342
▁üzerinden	-1343
▁fak	-1344
▁engel	-1345
afa	-1346
▁oyn	-1347
ıyoruz	-1348
acı	-1349
▁tedav	-1350
üsü	-1351
▁mi	-1352
),	-1353
▁sanat	-1354
▁başvur	-1355
▁politik	-1356
▁bakanlığı	-1357
▁başlat	-1358
▁kurulu	-1359
▁belirten	-1360
▁tl	-1361
ing	-1362
türk	-1363
tu	-1364
▁hiçbir	-1365
yacak	-1366
cağını	-1367
▁tart	-1368
▁yaşa	-1369
▁oyuncu	-1370
▁konusu	-1371
abilir	-1372
▁mahkem	-1373
▁seb	-1374
▁okul	-1375
▁demir	-1376
muz	-1377
▁demokr	-1378
▁suriye	-1379
▁prof	-1380
▁mecli	-1381
umlu	-1382
▁un	-1383
amp	-1384
▁dolar	-1385
▁per	-1386
ebilir	-1387
▁ülke	-1388
▁işlem	-1389
▁çalışma	-1390
▁almanya	-1391
▁şah	-1392
▁bağlı	-1393
▁tartış	-1394
▁yor	-1395
ısında	-1396
▁belediyesi	-1397
▁mem	-1398
▁rapor	-1399
▁aday	-1400
▁sey	-1401
▁gi	-1402
▁saldırı	-1403
▁beş	-1404
▁18	-1405
landır	-1406
ayet	-1407
▁şimdi	-1408
▁14	-1409
ışı	-1410
▁anlam	-1411
▁kara	-1412
▁altında	-1413
▁üniversitesi	-1414
ırken	-1415
işleri	-1416
▁yıldır	-1417
▁kişinin	-1418
fer	-1419
▁ürün	-1420
▁ali	-1421
▁başar	-1422
jan	-1423
▁yoğun	-1424
▁köy	-1425
ver	-1426
pan	-1427
▁yatırım	-1428
rail	-1429
▁soruştur	-1430
larıyla	-1431
▁tesp	-1432
esel	-1433
deş	-1434
▁geçti	-1435
▁para	-1436
▁operasyon	-1437
▁çevr	-1438
ser	-1439
▁gid	-1440
▁tic	-1441
▁oran	-1442
▁koy	-1443
▁imz	-1444
▁hast	-1445
▁bilin	-1446
▁sağla	-1447
▁sektör	-1448
ğın	-1449
▁fot	-1450
▁üretim	-1451
▁13	-1452
▁oluş	-1453
▁geri	-1454
amaz	-1455
▁huk	-1456
aki	-1457
cağı	-1458
▁ortak	-1459
▁i̇ngil	-1460
▁fır	-1461
▁rağ	-1462
▁16	-1463
▁artık	-1464
▁aktar	-1465
▁bile	-1466
▁taşı	-1467
ledi	-1468
erj	-1469
medi	-1470
▁anla	-1471
▁kısa	-1472
▁kararı	-1473
adan	-1474
▁oda	-1475
▁nokt	-1476
▁dile	-1477
▁hey	-1478
▁may	-1479
omo	-1480
▁merkezi	-1481
ber	-1482
▁men	-1483
niyet	-1484
ören	-1485
br	-1486
asını	-1487
▁rağmen	-1488
▁siyasi	-1489
▁belirterek	-1490
.'	-1491
▁düzenlenen	-1492
uştu	-1493
elere	-1494
masında	-1495
▁toplam	-1496
▁anlat	-1497
▁yürüt	-1498
▁hayatını	-1499
▁duyur	-1500
aliyet	-1501
▁diz	-1502
ünkü	-1503
▁tat	-1504
sine	-1505
sk	-1506
lendi	-1507
unuyor	-1508
▁öldür	-1509
leyen	-1510
▁tam	-1511
▁ettiği	-1512
▁incel	-1513
▁müdürlüğü	-1514
▁kem	-1515
net	-1516
▁tanı	-1517
▁mahall	-1518
▁yine	-1519
▁birliği	-1520
ekli	-1521
▁belirtti	-1522
eği	-1523
adolu	-1524
▁etkin	-1525
▁17	-1526
▁küç	-1527
tiv	-1528
▁rak	-1529
▁i̇srail	-1530
▁asker	-1531
▁herkes	-1532
tedir	-1533
▁mı	-1534
▁fotoğraf	-1535
alarında	-1536
▁tespit	-1537
▁siv	-1538
▁temmuz	-1539
▁zar	-1540
▁beklen	-1541
▁çünkü	-1542
▁ses	-1543
▁benim	-1544
elerin	-1545
unca	-1546
asının	-1547
▁ikinci	-1548
iyi	-1549
▁mart	-1550
▁söy	-1551
▁i̇ç	-1552
▁özg	-1553
▁part	-1554
lıyor	-1555
▁25	-1556
▁telef	-1557
▁büyükşehir	-1558
▁yaşındaki	-1559
uluk	-1560
dül	-1561
ari	-1562
▁kol	-1563
▁temsil	-1564
▁içerisinde	-1565
▁çif	-1566
▁gelecek	-1567
▁anadolu	-1568
▁değişik	-1569
lüğ	-1570
▁vurgu	-1571
bah	-1572
▁gelir	-1573
yanın	-1574
▁amer	-1575
▁kut	-1576
▁adım	-1577
lül	-1578
▁dah	-1579
▁boz	-1580
▁cen	-1581
▁ekipleri	-1582
▁cin	-1583
▁faaliyet	-1584
▁pat	-1585
maktadır	-1586
▁enerj	-1587
▁müda	-1588
▁cam	-1589
▁it	-1590
stafa	-1591
bat	-1592
▁re	-1593
bay	-1594
▁30	-1595
bet	-1596
detti	-1597
teş	-1598
min	-1599
▁gözalt	-1600
▁görüntü	-1601
▁kardeş	-1602
ba	-1603
▁etki	-1604
▁koron	-1605
▁pan	-1606
▁depr	-1607
mez	-1608
▁ait	-1609
▁ac	-1610
▁çin	-1611
▁alınan	-1612
▁beraber	-1613
undan	-1614
▁soru	-1615
▁itibar	-1616
alet	-1617
mıştır	-1618
üştü	-1619
mem	-1620
▁otomo	-1621
▁talep	-1622
inci	-1623
ök	-1624
duk	-1625
▁meydana	-1626
▁kir	-1627
▁şamp	-1628
▁bulunduğu	-1629
▁emniyet	-1630
▁ölüm	-1631
▁yurt	-1632
din	-1633
▁şehir	-1634
i̇r	-1635
▁pazar	-1636
▁yarış	-1637
▁uygula	-1638
▁teknoloj	-1639
ize	-1640
▁ref	-1641
▁ödül	-1642
▁yaşanan	-1643
▁veren	-1644
▁madde	-1645
▁çeş	-1646
▁tay	-1647
ılığı	-1648
-19	-1649
esinden	-1650
▁teknik	-1651
▁ilçesinde	-1652
▁açıl	-1653
isyon	-1654
▁basın	-1655
leriyle	-1656
▁gerçekleş	-1657
▁ifadelerini	-1658
▁artır	-1659
▁gül	-1660
aların	-1661
ban	-1662
▁bilim	-1663
ig	-1664
▁tük	-1665
▁inş	-1666
vet	-1667
▁i̇zmir	-1668
▁sezon	-1669
ilerine	-1670
▁mustafa	-1671
▁verildi	-1672
▁düny	-1673
▁diyor	-1674
▁le	-1675
ala	-1676
elen	-1677
▁kayde	-1678
▁geliştir	-1679
▁takip	-1680
▁mek	-1681
▁pek	-1682
▁hukuk	-1683
▁anda	-1684
▁os	-1685
dın	-1686
▁küçük	-1687
▁şid	-1688
▁pr	-1689
imizin	-1690
▁gözaltına	-1691
▁ajan	-1692
unları	-1693
▁100	-1694
▁müdahal	-1695
▁sit	-1696
▁kuz	-1697
▁ayında	-1698
ici	-1699
üb	-1700
▁yal	-1701
iran	-1702
▁yaralan	-1703
ğa	-1704
oz	-1705
▁bayram	-1706
kın	-1707
anıyor	-1708
şam	-1709
spor	-1710
mada	-1711
▁ederek	-1712
üc	-1713
▁kaydetti	-1714
lek	-1715
▁sin	-1716
▁başarı	-1717
▁gru	-1718
▁i̇ran	-1719
tem	-1720
▁hayvan	-1721
▁edecek	-1722
▁ilişk	-1723
▁ted	-1724
▁hatır	-1725
▁eder	-1726
ektr	-1727
ince	-1728
▁başbakan	-1729
▁adam	-1730
----	-1731
▁yani	-1732
▁deprem	-1733
▁oğ	-1734
mey	-1735
dum	-1736
▁24	-1737
▁milletvekili	-1738
▁um	-1739
▁otur	-1740
▁ner	-1741
▁*	-1742
▁sürec	-1743
▁bilgi	-1744
▁sayısı	-1745
ni	-1746
sinin	-1747
ilmek	-1748
▁kriz	-1749
tep	-1750
▁aldığı	-1751
▁şekl	-1752
▁lira	-1753
meden	-1754
aban	-1755
▁buna	-1756
uldu	-1757
siniz	-1758
of	-1759
ucu	-1760
▁uzak	-1761
▁organ	-1762
▁ekonomik	-1763
▁yem	-1764
▁mayıs	-1765
▁gol	-1766
▁st	-1767
▁val	-1768
▁kork	-1769
▁nis	-1770
▁üc	-1771
▁artış	-1772
▁koronav	-1773
▁ocak	-1774
▁eylem	-1775
▁lig	-1776
▁hap	-1777
kür	-1778
▁pu	-1779
▁cev	-1780
unan	-1781
madı	-1782
▁th	-1783
▁mağ	-1784
▁ajansı	-1785
▁otomobil	-1786
▁süreç	-1787
ale	-1788
▁erk	-1789
▁devr	-1790
üf	-1791
madan	-1792
.00	-1793
▁his	-1794
▁zamanda	-1795
▁ro	-1796
▁temel	-1797
▁haberleri	-1798
▁i̇lk	-1799
▁haziran	-1800
▁yaptık	-1801
üncü	-1802
▁sıra	-1803
ğine	-1804
▁sonrası	-1805
▁rahat	-1806
▁zir	-1807
▁kah	-1808
ilerinin	-1809
ilerini	-1810
▁dakika	-1811
▁kuruluş	-1812
▁olsun	-1813
▁ham	-1814
▁istem	-1815
▁eylül	-1816
dha	-1817
▁ahmet	-1818
▁benz	-1819
▁elektr	-1820
izm	-1821
tığını	-1822
▁net	-1823
▁ris	-1824
▁fat	-1825
▁rek	-1826
▁aralık	-1827
▁çözüm	-1828
▁fir	-1829
▁ateş	-1830
▁müdürü	-1831
▁şampiyon	-1832
▁çeşit	-1833
▁ann	-1834
▁gerekiyor	-1835
▁özgür	-1836
▁ilet	-1837
▁lider	-1838
▁yayım	-1839
▁2020	-1840
▁bölgede	-1841
▁cid	-1842
▁şunları	-1843
▁öğret	-1844
şte	-1845
▁oluyor	-1846
▁verdiği	-1847
ump	-1848
▁şehit	-1849
▁açıkladı	-1850
▁kasım	-1851
tım	-1852
▁yana	-1853
li̇	-1854
sat	-1855
▁çift	-1856
eg	-1857
▁ciddi	-1858
▁eur	-1859
▁dönüş	-1860
▁yetkil	-1861
▁değiştir	-1862
mar	-1863
▁karşılaş	-1864
ıntı	-1865
▁araştırma	-1866
▁barış	-1867
▁ülkede	-1868
▁sonucu	-1869
▁çat	-1870
▁kalan	-1871
dim	-1872
▁–	-1873
▁prot	-1874
▁yandan	-1875
▁uygulan	-1876
▁çağr	-1877
▁yapılacak	-1878
ült	-1879
ayas	-1880
▁dönemde	-1881
▁ekim	-1882
▁tarihi	-1883
▁sırasında	-1884
▁fet	-1885
yız	-1886
kün	-1887
▁bal	-1888
▁21	-1889
▁tarım	-1890
▁çarp	-1891
▁ticaret	-1892
▁antalya	-1893
▁uygun	-1894
▁mez	-1895
▁alındı	-1896
▁satış	-1897
▁nisan	-1898
▁sistemi	-1899
▁gerektiğini	-1900
▁askeri	-1901
eceğiz	-1902
menin	-1903
bahçe	-1904
ova	-1905
▁müm	-1906
▁yıllık	-1907
▁yardımcısı	-1908
▁tekrar	-1909
▁üyesi	-1910
lin	-1911
ğinde	-1912
kenin	-1913
ünden	-1914
sik	-1915
▁tören	-1916
talık	-1917
▁dünyanın	-1918
nek	-1919
▁koş	-1920
ılıyor	-1921
▁altın	-1922
▁gez	-1923
yas	-1924
▁belirtildi	-1925
▁yarat	-1926
▁orman	-1927
ılıç	-1928
▁amacı	-1929
og	-1930
▁tav	-1931
▁mahallesi	-1932
▁mesaj	-1933
▁kuzey	-1934
▁dör	-1935
▁jan	-1936
uh	-1937
▁yapı	-1938
▁verilen	-1939
▁boş	-1940
▁göç	-1941
▁fener	-1942
▁for	-1943
▁boyunca	-1944
▁diy	-1945
▁2019	-1946
ğünü	-1947
elerde	-1948
▁gök	-1949
▁telefon	-1950
▁mark	-1951
ğin	-1952
▁ülkemiz	-1953
▁yaban	-1954
lerce	-1955
▁tepki	-1956
abil	-1957
deniz	-1958
▁günde	-1959
▁br	-1960
▁güney	-1961
▁osman	-1962
▁hale	-1963
▁şiddet	-1964
▁kapat	-1965
▁ücret	-1966
▁eleştir	-1967
▁akp	-1968
ırı	-1969
▁giriş	-1970
▁tasar	-1971
asaray	-1972
ğımız	-1973
atasaray	-1974
▁yaşayan	-1975
▁kuv	-1976
▁zarar	-1977
▁götür	-1978
▁çocu	-1979
========	-1980
▁sanay	-1981
▁edil	-1982
mesini	-1983
▁hesab	-1984
ısından	-1985
▁ana	-1986
eder	-1987
▁sırada	-1988
▁aydın	-1989
▁ülkenin	-1990
▁onun	-1991
▁i̇st	-1992
▁koronavirüs	-1993
mam	-1994
▁yakalan	-1995
mer	-1996
▁mümkün	-1997
▁anayas	-1998
▁siyaset	-1999
▁öde	-2000
▁altına	-2001
▁dolayı	-2002
yle	-2003
▁oku	-2004
▁avuk	-2005
▁alıyor	-2006
▁teşek	-2007
▁23	-2008
▁şeklinde	-2009
▁olmadığını	-2010
ısıyla	-2011
▁elde	-2012
▁kurt	-2013
▁savunma	-2014
▁ikti	-2015
ıldığı	-2016
▁inan	-2017
▁edece	-2018
▁yav	-2019
▁kurtar	-2020
ent	-2021
▁işaret	-2022
asyonu	-2023
▁araya	-2024
etr	-2025
yu	-2026
isinin	-2027
liyor	-2028
▁trump	-2029
▁sokak	-2030
manı	-2031
▁bize	-2032
▁teşekkür	-2033
alarda	-2034
meyi	-2035
▁resmi	-2036
tere	-2037
dız	-2038
ray	-2039
▁müs	-2040
▁adı	-2041
▁ihra	-2042
▁aşı	-2043
▁sayıda	-2044
▁22	-2045
yip	-2046
▁olabilir	-2047
▁2018	-2048
▁yanıt	-2049
▁enf	-2050
▁kılıç	-2051
▁enerji	-2052
▁irak	-2053
▁galatasaray	-2054
acağız	-2055
ola	-2056
▁tehdi	-2057
▁inter	-2058
▁piyas	-2059
▁örgütü	-2060
endi	-2061
▁birleş	-2062
▁yaptır	-2063
▁bulunuyor	-2064
▁duruş	-2065
alarını	-2066
▁ara	-2067
lemek	-2068
▁ho	-2069
▁geniş	-2070
▁doğal	-2071
▁sahibi	-2072
hangi	-2073
cağız	-2074
kar	-2075
▁iddia	-2076
▁uzman	-2077
▁ku	-2078
▁kesin	-2079
▁tesi	-2080
▁ettik	-2081
▁yıldız	-2082
▁mur	-2083
▁çiz	-2084
▁erkek	-2085
▁ihtiyaç	-2086
▁bahç	-2087
▁traf	-2088
▁yapmak	-2089
ga	-2090
▁puan	-2091
▁soy	-2092
▁arasındaki	-2093
▁nit	-2094
▁öne	-2095
mesine	-2096
ağa	-2097
▁katıldı	-2098
masıyla	-2099
▁jandar	-2100
ile	-2101
▁fenerbahçe	-2102
▁meclis	-2103
▁tedbir	-2104
▁yapıldı	-2105
▁ip	-2106
▁dışında	-2107
miştir	-2108
acağı	-2109
▁sam	-2110
▁geliyor	-2111
▁dahil	-2112
bur	-2113
▁isteyen	-2114
▁hen	-2115
▁yılmaz	-2116
mayan	-2117
ort	-2118
cih	-2119
▁uğ	-2120
▁temsilc	-2121
▁ünlü	-2122
5'	-2123
▁güçlü	-2124
▁fransa	-2125
▁dan	-2126
▁komut	-2127
▁gereken	-2128
▁yargı	-2129
▁soruşturma	-2130
▁yorum	-2131
▁yapıyor	-2132
teki	-2133
▁akşam	-2134
sunuz	-2135
▁partisi	-2136
▁girişim	-2137
▁öner	-2138
dp	-2139
▁arac	-2140
▁dakik	-2141
▁dayan	-2142
▁mik	-2143
▁seviy	-2144
▁ordu	-2145
may	-2146
▁herhangi	-2147
ton	-2148
▁kemal	-2149
▁gördü	-2150
atürk	-2151
dük	-2152
taki	-2153
▁sevk	-2154
▁kuvvet	-2155
▁gür	-2156
▁başlayan	-2157
▁don	-2158
▁tercih	-2159
▁sabah	-2160
▁olmayan	-2161
▁dışişleri	-2162
▁yolu	-2163
▁kolay	-2164
ınav	-2165
▁yık	-2166
▁durumda	-2167
rik	-2168
▁belg	-2169
▁adalet	-2170
oh	-2171
▁olmaya	-2172
▁durumu	-2173
▁yabancı	-2174
▁yeş	-2175
muştu	-2176
dığımız	-2177
▁risk	-2178
gör	-2179
diler	-2180
▁tabi	-2181
▁bat	-2182
▁şubat	-2183
▁2021	-2184
elerinin	-2185
▁i̇ngiltere	-2186
▁halinde	-2187
rans	-2188
▁önlem	-2189
lediği	-2190
▁pak	-2191
iliği	-2192
▁sarı	-2193
imizi	-2194
▁adına	-2195
for	-2196
siyon	-2197
▁izin	-2198
ukray	-2199
▁söyleyen	-2200
▁pers	-2201
▁önünde	-2202
▁sınav	-2203
▁sivil	-2204
imize	-2205
▁muhal	-2206
sen	-2207
▁aa	-2208
▁bes	-2209
▁gündem	-2210
▁mesel	-2211
▁virüs	-2212
ğim	-2213
isini	-2214
▁str	-2215
cılık	-2216
▁hemen	-2217
▁türkçe	-2218
▁arab	-2219
▁indir	-2220
▁itibaren	-2221
▁50	-2222
▁birbir	-2223
diş	-2224
ıyla	-2225
▁bağım	-2226
▁görül	-2227
üle	-2228
gen	-2229
▁hesap	-2230
▁yanında	-2231
▁yerel	-2232
zon	-2233
ecep	-2234
▁hastalık	-2235
▁amacıyla	-2236
▁şart	-2237
▁dal	-2238
▁abon	-2239
▁getirdi	-2240
▁toprak	-2241
son	-2242
▁sözleş	-2243
▁karak	-2244
iktaş	-2245
▁düşünüyor	-2246
▁trans	-2247
▁ağu	-2248
▁ağust	-2249
▁tayyip	-2250
▁temiz	-2251
▁çeşitli	-2252
▁amaç	-2253
▁kamer	-2254
▁edilm	-2255
▁sanık	-2256
▁atatürk	-2257
alama	-2258
▁mode	-2259
▁recep	-2260
diklerini	-2261
▁lü	-2262
▁fay	-2263
▁bana	-2264
usunda	-2265
▁laz	-2266
▁zorunda	-2267
,5	-2268
lif	-2269
dıkları	-2270
▁gazetec	-2271
tim	-2272
▁sağlan	-2273
▁önceki	-2274
▁dağı	-2275
▁fes	-2276
mat	-2277
osu	-2278
aten	-2279
▁konuda	-2280
▁geçmiş	-2281
ılmış	-2282
▁sem	-2283
▁gece	-2284
▁jandarma	-2285
ze	-2286
iğ	-2287
▁yunan	-2288
▁demokrat	-2289
ücü	-2290
tıyor	-2291
▁ağustos	-2292
siy	-2293
▁du	-2294
nden	-2295
▁yılı	-2296
cat	-2297
luluk	-2298
sak	-2299
▁i̇h	-2300
elerini	-2301
▁kitap	-2302
▁şark	-2303
▁açısından	-2304
▁i̇nsan	-2305
tur	-2306
▁ukray	-2307
ısının	-2308
▁tehlik	-2309
sın	-2310
dıklarını	-2311
▁asl	-2312
liğini	-2313
▁bakım	-2314
▁doğu	-2315
▁çer	-2316
▁kuş	-2317
sta	-2318
lüyor	-2319
▁öğretmen	-2320
▁ha	-2321
▁kayıt	-2322
▁euro	-2323
▁nedenle	-2324
▁elektrik	-2325
ilerek	-2326
▁beşiktaş	-2327
▁uygulama	-2328
▁belli	-2329
▁dört	-2330
▁person	-2331
etin	-2332
best	-2333
▁hangi	-2334
▁sıcak	-2335
erli	-2336
▁yetiş	-2337
201	-2338
ka	-2339
▁parç	-2340
▁kötü	-2341
▁dok	-2342
▁iler	-2343
▁sonunda	-2344
▁vardı	-2345
▁esn	-2346
▁açıklamalar	-2347
▁çab	-2348
▁teklif	-2349
▁norm	-2350
do	-2351
▁sol	-2352
▁yeşil	-2353
▁bölge	-2354
▁bundan	-2355
▁yangın	-2356
▁kons	-2357
rek	-2358
▁sonrasında	-2359
▁henüz	-2360
▁aile	-2361
▁199	-2362
enk	-2363
evi	-2364
elim	-2365
▁kaldı	-2366
i̇l	-2367
▁giy	-2368
lasyon	-2369
miyor	-2370
▁list	-2371
.,	-2372
po	-2373
▁çalışmaları	-2374
▁hapis	-2375
▁dol	-2376
▁çevre	-2377
▁dolayısıyla	-2378
▁gec	-2379
ck	-2380
▁internet	-2381
▁i̇şte	-2382
▁ettiğini	-2383
▁başta	-2384
▁mas	-2385
amız	-2386
▁pkk	-2387
lilik	-2388
ki̇	-2389
alara	-2390
▁alış	-2391
anlığ	-2392
stin	-2393
▁başkanlığı	-2394
▁gerekli	-2395
▁yarg	-2396
isine	-2397
layarak	-2398
▁adlı	-2399
ımızı	-2400
di̇	-2401
neği	-2402
▁kayded	-2403
oktor	-2404
▁1.	-2405
▁kaf	-2406
▁tarihinde	-2407
cut	-2408
▁faiz	-2409
▁ortam	-2410
▁balık	-2411
taj	-2412
▁süp	-2413
▁serbest	-2414
▁mutlu	-2415
▁başvuru	-2416
üst	-2417
meyen	-2418
▁murat	-2419
▁rol	-2420
▁tedavi	-2421
▁hol	-2422
▁ayak	-2423
▁tehdit	-2424
▁yıllar	-2425
▁eşi	-2426
▁orada	-2427
▁küresel	-2428
▁mahkeme	-2429
▁hızlı	-2430
▁taleb	-2431
izyon	-2432
ısını	-2433
▁iy	-2434
▁ch	-2435
▁sek	-2436
▁2017	-2437
asıyla	-2438
to	-2439
▁direktör	-2440
▁uyar	-2441
▁demokras	-2442
ısına	-2443
▁günlük	-2444
▁poz	-2445
▁geçtiğimiz	-2446
dikleri	-2447
kaç	-2448
▁azal	-2449
▁avukat	-2450
▁giz	-2451
▁doktor	-2452
meni	-2453
▁yansı	-2454
▁turizm	-2455
▁28	-2456
diyor	-2457
▁yılın	-2458
▁zaten	-2459
matik	-2460
▁ukrayna	-2461
2'	-2462
türkiye	-2463
▁katkı	-2464
▁kulüb	-2465
ullah	-2466
▁öte	-2467
lacak	-2468
eyin	-2469
▁görüyor	-2470
▁mevcut	-2471
ladığı	-2472
ben	-2473
▁27	-2474
▁çan	-2475
inc	-2476
▁istiyor	-2477
▁yıldırım	-2478
▁kov	-2479
masından	-2480
▁haft	-2481
i̇z	-2482
meleri	-2483
▁trab	-2484
gaz	-2485
▁gerekç	-2486
ımızın	-2487
mektedir	-2488
▁mot	-2489
▁fik	-2490
▁getiren	-2491
luğu	-2492
ınca	-2493
▁mahkemesi	-2494
fet	-2495
▁başına	-2496
dam	-2497
▁boğ	-2498
▁sorumlu	-2499
▁kredi	-2500
alarının	-2501
▁onu	-2502
▁etkinlik	-2503
▁lazım	-2504
umu	-2505
daroğlu	-2506
▁şik	-2507
▁düzey	-2508
▁başında	-2509
▁ulusal	-2510
▁gem	-2511
larımızın	-2512
▁gören	-2513
bm	-2514
abı	-2515
▁alanda	-2516
▁şüphel	-2517
▁dünyada	-2518
▁feder	-2519
adem	-2520
ilistin	-2521
çev	-2522
▁fakat	-2523
▁başarılı	-2524
lış	-2525
▁etkil	-2526
▁dışı	-2527
▁müşt	-2528
ildiği	-2529
▁sef	-2530
▁diyen	-2531
▁iletişim	-2532
▁kendisine	-2533
▁süper	-2534
liy	-2535
mıyor	-2536
▁sona	-2537
▁ker	-2538
▁kampan	-2539
▁konuşan	-2540
▁31	-2541
sızlık	-2542
▁durdur	-2543
arken	-2544
▁sig	-2545
▁ediliyor	-2546
ve	-2547
).	-2548
▁gider	-2549
▁çatış	-2550
elerine	-2551
allah	-2552
acağını	-2553
üman	-2554
bo	-2555
▁söylüyor	-2556
ona	-2557
▁koca	-2558
▁teslim	-2559
▁detay	-2560
eyle	-2561
▁hayata	-2562
ahim	-2563
▁yasak	-2564
▁dağ	-2565
▁döneminde	-2566
ian	-2567
lulu	-2568
▁dö	-2569
▁futbolcu	-2570
▁hastanesi	-2571
▁uçak	-2572
▁uğr	-2573
▁kanal	-2574
ğun	-2575
onya	-2576
▁festiv	-2577
ate	-2578
▁of	-2579
▁ediyorum	-2580
▁salg	-2581
▁kong	-2582
▁katılım	-2583
▁i̇slam	-2584
ovid	-2585
▁haline	-2586
▁park	-2587
▁çeken	-2588
▁bursa	-2589
yo	-2590
ündeki	-2591
▁sanayi	-2592
▁karış	-2593
ti̇	-2594
▁allah	-2595
▁yılda	-2596
▁tw	-2597
▁işlet	-2598
▁adet	-2599
▁red	-2600
▁ap	-2601
▁hik	-2602
cılar	-2603
elerinde	-2604
▁kilom	-2605
▁ediyoruz	-2606
dağ	-2607
▁aslında	-2608
▁olabil	-2609
▁büyüm	-2610
-2	-2611
▁hakları	-2612
lanıyor	-2613
▁fi	-2614
▁öğrenciler	-2615
abilecek	-2616
▁40	-2617
üyle	-2618
▁kısm	-2619
▁kürt	-2620
▁arama	-2621
▁merak	-2622
▁zey	-2623
aşa	-2624
▁normal	-2625
▁kup	-2626
▁26	-2627
▁yanlış	-2628
▁bunlar	-2629
▁2.	-2630
▁biraz	-2631
3'	-2632
i̇m	-2633
ndan	-2634
▁sebeb	-2635
demir	-2636
▁kılıçdaroğlu	-2637
dr	-2638
▁protest	-2639
ime	-2640
bi	-2641
▁2016	-2642
▁filistin	-2643
umsuz	-2644
str	-2645
▁eğer	-2646
▁almak	-2647
ladık	-2648
▁ders	-2649
▁cem	-2650
▁500	-2651
▁ilan	-2652
▁trabzon	-2653
ital	-2654
▁vide	-2655
▁yapacak	-2656
▁onlar	-2657
altı	-2658
▁eser	-2659
nün	-2660
▁yöntem	-2661
▁amerika	-2662
▁cevap	-2663
▁iktidar	-2664
▁terörist	-2665
dal	-2666
▁kadro	-2667
udi	-2668
▁istih	-2669
▁ruh	-2670
▁kuru	-2671
▁proje	-2672
▁tamamen	-2673
ayla	-2674
▁önümüz	-2675
med	-2676
▁bağlan	-2677
▁paylaşım	-2678
lal	-2679
50	-2680
geç	-2681
▁nüf	-2682
▁amerik	-2683
ımıza	-2684
▁sene	-2685
▁örnek	-2686
▁beb	-2687
ina	-2688
▁mus	-2689
▁oluşan	-2690
▁canlı	-2691
nız	-2692
▁finans	-2693
▁hatta	-2694
▁beni	-2695
▁olmadığı	-2696
▁fatih	-2697
▁birkaç	-2698
alim	-2699
▁tip	-2700
▁sayın	-2701
▁ka	-2702
▁haberler	-2703
▁baz	-2704
▁düşük	-2705
ast	-2706
▁olsa	-2707
▁i̇k	-2708
ato	-2709
▁çerçev	-2710
gar	-2711
4'	-2712
biz	-2713
yap	-2714
▁protesto	-2715
▁kural	-2716
▁kalk	-2717
▁etkili	-2718
▁the	-2719
▁derece	-2720
olojik	-2721
▁doğr	-2722
▁bildirdi	-2723
▁gıda	-2724
▁unut	-2725
▁i̇lçe	-2726
▁personel	-2727
▁emek	-2728
▁nerede	-2729
▁yaralı	-2730
▁zam	-2731
adde	-2732
▁hakim	-2733
ıldığını	-2734
abir	-2735
rem	-2736
▁sını	-2737
▁kaybetti	-2738
atif	-2739
▁açı	-2740
▁derneği	-2741
▁cenaz	-2742
▁olup	-2743
▁cih	-2744
lenmesi	-2745
▁nok	-2746
▁yönetimi	-2747
liler	-2748
▁hastalı	-2749
▁görüşmeler	-2750
▁darbe	-2751
▁ölç	-2752
▁rakam	-2753
▁türlü	-2754
▁düştü	-2755
▁bizi	-2756
▁grubu	-2757
▁borç	-2758
▁zen	-2759
▁sürekli	-2760
irken	-2761
cusu	-2762
▁tesis	-2763
▁yalnız	-2764
pek	-2765
▁bom	-2766
mesinin	-2767
her	-2768
dek	-2769
▁sa	-2770
▁transfer	-2771
▁yönetic	-2772
▁hdp	-2773
▁koruma	-2774
▁olduğuna	-2775
sav	-2776
▁fetö	-2777
▁anayasa	-2778
▁beri	-2779
▁29	-2780
▁yürüy	-2781
▁yemek	-2782
▁plat	-2783
▁batı	-2784
▁sayı	-2785
▁çalışıyor	-2786
▁bunların	-2787
▁bankası	-2788
artesi	-2789
fen	-2790
▁model	-2791
▁müh	-2792
çiler	-2793
30	-2794
▁edin	-2795
▁düşür	-2796
madığını	-2797
▁güneş	-2798
düğü	-2799
liye	-2800
▁yapılması	-2801
▁koşul	-2802
▁afr	-2803
lamen	-2804
▁sonuc	-2805
▁yaşında	-2806
alım	-2807
▁co	-2808
▁edilmesi	-2809
▁müdahale	-2810
duğunu	-2811
▁no	-2812
▁silahlı	-2813
lamaya	-2814
madığı	-2815
▁cep	-2816
▁büt	-2817
▁gay	-2818
yarbak	-2819
▁sıkıntı	-2820
ülü	-2821
▁peki	-2822
▁tu	-2823
▁edilmiş	-2824
▁konut	-2825
▁cadde	-2826
▁karşısında	-2827
sur	-2828
▁acil	-2829
ham	-2830
iden	-2831
kur	-2832
▁önüne	-2833
▁alacak	-2834
▁kamuoy	-2835
▁kişiler	-2836
▁çoğ	-2837
▁davran	-2838
▁sebep	-2839
ümü	-2840
ulması	-2841
▁meydan	-2842
▁ileri	-2843
▁sefer	-2844
▁sınıf	-2845
▁olumsuz	-2846
▁endiş	-2847
▁fer	-2848
▁çekti	-2849
gal	-2850
▁öyle	-2851
▁davet	-2852
▁test	-2853
▁serv	-2854
isyonu	-2855
itter	-2856
▁gar	-2857
▁tec	-2858
▁toplantıs	-2859
▁yerinde	-2860
çak	-2861
▁değildir	-2862
▁sert	-2863
▁beyaz	-2864
▁/	-2865
▁mıs	-2866
▁acı	-2867
▁parlamen	-2868
▁pen	-2869
▁hüs	-2870
dığında	-2871
▁gösterdi	-2872
▁müsl	-2873
▁yerde	-2874
▁günlerde	-2875
▁istik	-2876
▁atan	-2877
▁num	-2878
alarına	-2879
sizlik	-2880
müş	-2881
▁trafik	-2882
maması	-2883
▁oldukça	-2884
▁yazar	-2885
sul	-2886
▁itir	-2887
lığını	-2888
▁adana	-2889
▁nur	-2890
▁erken	-2891
▁cezası	-2892
▁refer	-2893
▁biç	-2894
esindeki	-2895
meli	-2896
bmm	-2897
maların	-2898
▁etme	-2899
▁olmaz	-2900
▁süren	-2901
ydı	-2902
▁adayı	-2903
▁vatandaşlar	-2904
▁dost	-2905
▁tıp	-2906
▁demek	-2907
iyeti	-2908
▁gönül	-2909
set	-2910
▁anlattı	-2911
▁dava	-2912
▁anlatan	-2913
▁buluş	-2914
dığına	-2915
▁katılan	-2916
deri	-2917
lamak	-2918
▁tahmin	-2919
ükle	-2920
i̇ş	-2921
▁mhp	-2922
▁gitti	-2923
▁doğan	-2924
uvar	-2925
mızı	-2926
▁kesim	-2927
▁dök	-2928
▁ihracat	-2929
▁denetim	-2930
▁kendisini	-2931
▁insanların	-2932
▁yarar	-2933
▁vaz	-2934
▁sorum	-2935
▁giden	-2936
▁telev	-2937
ıma	-2938
▁yunanistan	-2939
raman	-2940
i̇k	-2941
▁diyerek	-2942
yalı	-2943
▁konuyla	-2944
▁milletvekil	-2945
▁veriyor	-2946
▁hasan	-2947
form	-2948
▁şüpheli	-2949
▁muhabir	-2950
▁kulüp	-2951
▁yerleş	-2952
▁hayır	-2953
▁tüket	-2954
▁ıs	-2955
▁i̇ngiliz	-2956
larımızı	-2957
ildiğini	-2958
▁ligi	-2959
atej	-2960
yum	-2961
co	-2962
▁projesi	-2963
has	-2964
▁kamp	-2965
▁şen	-2966
▁genelinde	-2967
oloji	-2968
ebil	-2969
▁imza	-2970
▁memur	-2971
▁ces	-2972
▁fel	-2973
one	-2974
▁i̇ki	-2975
▁kanun	-2976
ısıt	-2977
i̇s	-2978
▁aylık	-2979
▁önümüzdeki	-2980
tepe	-2981
▁akıl	-2982
anan	-2983
▁yolcu	-2984
yarbakır	-2985
▁sp	-2986
ışık	-2987
▁istiyoruz	-2988
▁bugüne	-2989
asından	-2990
▁süreci	-2991
▁karşılık	-2992
▁oranı	-2993
▁fab	-2994
▁üçüncü	-2995
▁nokta	-2996
▁sul	-2997
▁giren	-2998
i̇t	-2999
▁anne	-3000
tifak	-3001
go	-3002
▁uyarı	-3003
leyi	-3004
▁deney	-3005
▁incelem	-3006
sas	-3007
brahim	-3008
har	-3009
▁birinci	-3010
▁dakikada	-3011
▁şahin	-3012
izi	-3013
▁çelik	-3014
çuk	-3015
▁insanlar	-3016
▁başlan	-3017
iklet	-3018
▁cuma	-3019
▁saatlerinde	-3020
▁platform	-3021
▁meslek	-3022
▁van	-3023
▁muhalef	-3024
▁sü	-3025
▁toplu	-3026
▁yere	-3027
▁öncesi	-3028
liğinde	-3029
▁müzik	-3030
▁def	-3031
▁lideri	-3032
▁petr	-3033
▁duyurdu	-3034
▁ister	-3035
▁tor	-3036
▁imkan	-3037
▁kims	-3038
▁tbmm	-3039
▁enflasyon	-3040
▁yazılı	-3041
▁görüldü	-3042
emez	-3043
▁stratej	-3044
▁çevir	-3045
ınar	-3046
▁hazırlık	-3047
▁arada	-3048
▁idar	-3049
▁uğur	-3050
▁kaymak	-3051
▁geril	-3052
▁danış	-3053
▁soğ	-3054
dak	-3055
indi	-3056
▁i̇span	-3057
▁neler	-3058
▁binlerce	-3059
▁gündeme	-3060
▁ayı	-3061
▁mis	-3062
▁fu	-3063
▁sayesinde	-3064
▁öğrenildi	-3065
▁altı	-3066
▁eyal	-3067
ndeki	-3068
▁döv	-3069
▁diyarbakır	-3070
▁arz	-3071
▁3.	-3072
▁kapı	-3073
▁açılış	-3074
▁müslüman	-3075
▁cami	-3076
▁yarın	-3077
▁korun	-3078
▁kahraman	-3079
forman	-3080
▁dos	-3081
▁oyna	-3082
lenerek	-3083
▁lüt	-3084
▁i̇brahim	-3085
dat	-3086
▁tatil	-3087
▁hır	-3088
▁kilo	-3089
ko	-3090
▁aya	-3091
▁teşkil	-3092
▁şikayet	-3093
▁tanım	-3094
▁nes	-3095
▁gösteren	-3096
mür	-3097
▁alanında	-3098
▁bekleniyor	-3099
▁pandem	-3100
▁performan	-3101
ğiz	-3102
nan	-3103
▁koru	-3104
▁girdi	-3105
▁ton	-3106
i̇d	-3107
▁otob	-3108
▁ert	-3109
mail	-3110
atör	-3111
▁tok	-3112
jital	-3113
▁gerekir	-3114
▁otel	-3115
▁meş	-3116
▁yapıla	-3117
ifa	-3118
▁alarak	-3119
▁petrol	-3120
unuz	-3121
ğında	-3122
▁aralarında	-3123
ükleer	-3124
yet	-3125
itir	-3126
▁erz	-3127
▁dışarı	-3128
▁evde	-3129
▁mask	-3130
▁yıllarda	-3131
fi	-3132
▁çap	-3133
▁zengin	-3134
uzur	-3135
▁mor	-3136
▁düzenlen	-3137
imin	-3138
▁öncelik	-3139
ğinin	-3140
▁fakült	-3141
ciler	-3142
▁havalim	-3143
▁bm	-3144
par	-3145
▁çocuklar	-3146
▁taz	-3147
▁fil	-3148
▁ef	-3149
▁mesaf	-3150
▁twitter	-3151
▁video	-3152
▁durumunda	-3153
▁derin	-3154
▁başbakanı	-3155
kale	-3156
▁onların	-3157
▁maden	-3158
lanması	-3159
barı	-3160
▁keş	-3161
▁vardır	-3162
▁zirv	-3163
pen	-3164
yıl	-3165
ebilecek	-3166
vi	-3167
▁sürede	-3168
▁geçiş	-3169
▁teknoloji	-3170
mayacak	-3171
▁isimli	-3172
▁kaza	-3173
▁kısıt	-3174
▁yang	-3175
ilendir	-3176
)-	-3177
▁kullanım	-3178
▁vermek	-3179
▁televizyon	-3180
▁kaymakam	-3181
▁bildirildi	-3182
imde	-3183
▁ilaç	-3184
▁hesabından	-3185
▁yitir	-3186
▁bağımsız	-3187
▁namaz	-3188
▁kapalı	-3189
▁huzur	-3190
▁umut	-3191
▁kaçak	-3192
▁final	-3193
▁esnaf	-3194
▁değişiklik	-3195
▁nükleer	-3196
▁özet	-3197
▁nak	-3198
▁vaka	-3199
▁fırsat	-3200
▁alanı	-3201
▁birey	-3202
▁taraftar	-3203
bilecek	-3204
1'	-3205
▁takımı	-3206
▁aşırı	-3207
▁metre	-3208
▁eksik	-3209
▁güc	-3210
▁örgütün	-3211
▁iptal	-3212
▁ağr	-3213
▁malz	-3214
bey	-3215
▁etmesi	-3216
▁nef	-3217
▁tiyat	-3218
▁görevli	-3219
▁öngör	-3220
▁onay	-3221
▁mekan	-3222
▁benzer	-3223
▁öğretim	-3224
kiş	-3225
▁i̇talya	-3226
şu	-3227
▁alma	-3228
▁min	-3229
ke	-3230
▁bür	-3231
abet	-3232
▁belki	-3233
▁gr	-3234
▁rej	-3235
▁iklim	-3236
▁ramaz	-3237
▁yeri	-3238
liğe	-3239
▁yaralandı	-3240
▁kullanıcı	-3241
▁ona	-3242
cüsü	-3243
▁dijital	-3244
▁gide	-3245
▁ata	-3246
za	-3247
▁nato	-3248
▁i̇çişleri	-3249
▁anlay	-3250
seri	-3251
▁yapma	-3252
▁mac	-3253
▁tabii	-3254
▁mısır	-3255
uşturucu	-3256
▁araz	-3257
imizde	-3258
laya	-3259
▁plak	-3260
cılı	-3261
▁se	-3262
şk	-3263
▁memnun	-3264
▁adli	-3265
▁nüfus	-3266
▁sahn	-3267
▁kış	-3268
▁kurtul	-3269
▁yasa	-3270
des	-3271
▁çay	-3272
▁yargılan	-3273
etre	-3274
▁ekran	-3275
emedi	-3276
üştür	-3277
inç	-3278
▁web	-3279
▁x	-3280
▁kalit	-3281
▁cumhuriyeti	-3282
▁yarı	-3283
▁kurban	-3284
▁bölgesi	-3285
ia	-3286
▁yapım	-3287
▁kaybeden	-3288
▁gerçekten	-3289
cılığı	-3290
▁i̇mam	-3291
▁yüzden	-3292
▁sine	-3293
tek	-3294
▁hala	-3295
plo	-3296
▁ramazan	-3297
▁arap	-3298
▁baskı	-3299
▁mücadel	-3300
arında	-3301
sınız	-3302
eyecek	-3303
▁tas	-3304
▁olacağını	-3305
▁ekonomi	-3306
▁akadem	-3307
▁sunulan	-3308
▁kurumu	-3309
--------	-3310
▁onur	-3311
▁öğrenci	-3312
▁başsav	-3313
▁vali	-3314
▁işbir	-3315
▁eşit	-3316
▁yaşadığı	-3317
▁isten	-3318
▁saygı	-3319
▁tiyatro	-3320
gun	-3321
liğine	-3322
▁köpr	-3323
▁attı	-3324
yse	-3325
ho	-3326
com	-3327
▁hayal	-3328
▁kampany	-3329
ğiniz	-3330
▁yum	-3331
▁akdeniz	-3332
▁ob	-3333
▁heyec	-3334
malıdır	-3335
mur	-3336
▁güm	-3337
▁etkilen	-3338
uluyor	-3339
kır	-3340
▁sürüyor	-3341
8'	-3342
▁hüseyin	-3343
▁olumlu	-3344
▁adr	-3345
ğan	-3346
iyan	-3347
▁istiyorum	-3348
cilik	-3349
soy	-3350
başı	-3351
leyman	-3352
▁öden	-3353
▁hakkı	-3354
▁new	-3355
▁yavaş	-3356
▁hastaneye	-3357
▁turist	-3358
▁çıkış	-3359
▁sanatçı	-3360
liğin	-3361
od	-3362
▁salgın	-3363
▁kovid	-3364
▁ömer	-3365
▁azalt	-3366
▁sağlıklı	-3367
▁yerli	-3368
▁bunları	-3369
faiye	-3370
▁konser	-3371
dün	-3372
▁düzenlem	-3373
▁sitesinde	-3374
▁yola	-3375
▁mağdur	-3376
hat	-3377
tiler	-3378
ij	-3379
▁şar	-3380
▁tutuklu	-3381
yak	-3382
▁koç	-3383
▁kızı	-3384
elle	-3385
▁yaparak	-3386
eksiyon	-3387
▁etmeye	-3388
▁söyley	-3389
▁kimse	-3390
▁derec	-3391
▁zaf	-3392
▁kaydedildi	-3393
duğ	-3394
▁©	-3395
▁yağış	-3396
▁kart	-3397
▁göçmen	-3398
▁198	-3399
9'	-3400
▁karşıya	-3401
▁salon	-3402
leri̇	-3403
▁ilçe	-3404
▁kayıp	-3405
▁grub	-3406
▁karan	-3407
ılmasını	-3408
▁samsun	-3409
▁dik	-3410
▁inşa	-3411
▁afrika	-3412
▁programı	-3413
▁şehr	-3414
▁büyükel	-3415
▁akış	-3416
▁verilm	-3417
▁üs	-3418
▁eg	-3419
▁kendini	-3420
▁şube	-3421
larımıza	-3422
asit	-3423
▁uyuşturucu	-3424
▁giderek	-3425
ever	-3426
▁konya	-3427
muyor	-3428
.1	-3429
▁bitir	-3430
▁komisyonu	-3431
▁süleyman	-3432
▁çocukların	-3433
bb	-3434
▁ilgi	-3435
erken	-3436
▁vurgulayan	-3437
liyoruz	-3438
▁verecek	-3439
▁gelişmeler	-3440
▁kişilerin	-3441
▁bede	-3442
▁bara	-3443
▁muham	-3444
▁demokratik	-3445
lılık	-3446
▁afgan	-3447
sanız	-3448
▁şaş	-3449
▁böylece	-3450
▁emekli	-3451
▁kadınlar	-3452
▁alk	-3453
abak	-3454
▁vek	-3455
▁çey	-3456
▁ez	-3457
▁stan	-3458
",	-3459
avuş	-3460
muştur	-3461
▁süreçte	-3462
▁i̇t	-3463
malarını	-3464
▁gur	-3465
▁pas	-3466
▁yapmaya	-3467
▁altyap	-3468
▁dü	-3469
mesinde	-3470
ner	-3471
▁yayımlan	-3472
landa	-3473
▁60	-3474
▁ekib	-3475
▁göl	-3476
say	-3477
▁edildiği	-3478
▁üretic	-3479
▁edeb	-3480
▁eyalet	-3481
▁bölümü	-3482
▁doğrul	-3483
▁çak	-3484
▁hükümeti	-3485
▁kapan	-3486
▁peş	-3487
liğinin	-3488
▁kullanılan	-3489
urum	-3490
▁hatırlat	-3491
▁edeceğiz	-3492
ati	-3493
sim	-3494
brıs	-3495
▁satın	-3496
▁miktar	-3497
▁cinayet	-3498
▁vatandaşların	-3499
aba	-3500
abiliyor	-3501
▁civ	-3502
7'	-3503
ekim	-3504
anam	-3505
▁gösteriyor	-3506
ong	-3507
▁serg	-3508
▁kazandır	-3509
▁i̇sv	-3510
ersiz	-3511
▁dünyaya	-3512
▁odak	-3513
▁maçı	-3514
▁sürücü	-3515
▁altını	-3516
▁inşaat	-3517
▁tun	-3518
▁belirlen	-3519
sch	-3520
▁so	-3521
ıyorum	-3522
şı	-3523
mal	-3524
▁geldiği	-3525
.0	-3526
▁üm	-3527
▁ekibi	-3528
▁koor	-3529
▁olduklarını	-3530
▁lütfen	-3531
▁cor	-3532
▁konseyi	-3533
tren	-3534
▁dep	-3535
▁inde	-3536
sinde	-3537
▁üyeleri	-3538
▁kalp	-3539
▁işç	-3540
veriş	-3541
▁organiz	-3542
▁cezaev	-3543
ilirken	-3544
▁hab	-3545
laşma	-3546
▁kapasit	-3547
▁vergi	-3548
▁yaşamını	-3549
▁covid	-3550
▁bayramı	-3551
▁kıl	-3552
utin	-3553
larındaki	-3554
▁babası	-3555
▁pla	-3556
▁bö	-3557
▁sonucunda	-3558
▁sorunu	-3559
▁kırmızı	-3560
▁kendisi	-3561
▁bı	-3562
▁savcı	-3563
▁gençlik	-3564
luğ	-3565
ren	-3566
iyer	-3567
▁defa	-3568
▁bilinen	-3569
dent	-3570
▁tv	-3571
?"	-3572
▁ettir	-3573
▁maaş	-3574
▁yetkililer	-3575
▁amerikan	-3576
▁fiz	-3577
▁gerekçesiyle	-3578
▁naz	-3579
▁güncel	-3580
▁aracı	-3581
▁çıkıyor	-3582
ag	-3583
▁hisse	-3584
▁|	-3585
▁mel	-3586
▁görülen	-3587
▁vade	-3588
▁hâ	-3589
▁anlamda	-3590
▁not	-3591
lerimizi	-3592
amak	-3593
▁hakan	-3594
▁prob	-3595
ılır	-3596
▁tali	-3597
▁renk	-3598
▁herkesin	-3599
▁i̇nş	-3600
▁hasta	-3601
▁ağaç	-3602
▁açıklan	-3603
▁bayrak	-3604
▁seyir	-3605
▁çavuş	-3606
6'	-3607
▁kıbrıs	-3608
▁zorun	-3609
▁ifadesini	-3610
sup	-3611
▁psik	-3612
▁mahalle	-3613
dev	-3614
ğe	-3615
▁yazı	-3616
▁vazgeç	-3617
ruk	-3618
▁avu	-3619
▁be	-3620
▁anal	-3621
ımda	-3622
▁cinsel	-3623
▁bölgesinde	-3624
onik	-3625
aker	-3626
▁fakültesi	-3627
▁varsa	-3628
pendent	-3629
uyu	-3630
▁i̇smail	-3631
▁del	-3632
▁oğlu	-3633
▁müşter	-3634
▁toplantısı	-3635
▁geldiğini	-3636
▁independent	-3637
▁yetiştir	-3638
▁tamamlan	-3639
▁desteği	-3640
etici	-3641
kor	-3642
▁krit	-3643
▁fransız	-3644
▁baba	-3645
▁far	-3646
siyle	-3647
düğünü	-3648
▁roman	-3649
▁sağlamak	-3650
▁haberine	-3651
▁kıy	-3652
▁dikkati	-3653
ğına	-3654
lamalar	-3655
▁taşın	-3656
▁hazırlanan	-3657
▁yeterli	-3658
▁mutlak	-3659
▁35	-3660
mesiyle	-3661
▁yolc	-3662
▁kop	-3663
imli	-3664
▁yönünde	-3665
▁suudi	-3666
▁bilgiler	-3667
▁birleşik	-3668
▁asla	-3669
▁görüşme	-3670
emesi	-3671
▁kilometre	-3672
▁içeri	-3673
▁mühendi	-3674
▁ederken	-3675
▁amel	-3676
▁muhalefet	-3677
illi	-3678
▁kalkın	-3679
▁hac	-3680
▁yaptırım	-3681
▁vakf	-3682
▁sonraki	-3683
▁ihtim	-3684
▁üniversite	-3685
▁kaya	-3686
▁diplo	-3687
▁çoğun	-3688
iantep	-3689
erbay	-3690
▁demokrasi	-3691
▁fabrik	-3692
lenme	-3693
▁şi	-3694
▁darb	-3695
▁lis	-3696
▁açtı	-3697
▁teb	-3698
▁vurguladı	-3699
▁yürüyüş	-3700
▁konfer	-3701
▁dönüşüm	-3702
kaya	-3703
▁jap	-3704
▁mensup	-3705
▁güçlendir	-3706
ant	-3707
ern	-3708
▁alına	-3709
▁medyada	-3710
lığa	-3711
▁problem	-3712
▁mült	-3713
▁makam	-3714
▁asıl	-3715
▁koordin	-3716
▁şans	-3717
▁düşünüyorum	-3718
▁kanser	-3719
▁onları	-3720
▁sözcüsü	-3721
▁bölgeye	-3722
▁inanıyor	-3723
rah	-3724
▁hikay	-3725
▁diren	-3726
▁başlattı	-3727
▁ihlal	-3728
urken	-3729
leşme	-3730
▁mezar	-3731
laması	-3732
▁sığın	-3733
▁yaptıkları	-3734
▁sporcu	-3735
doğu	-3736
he	-3737
▁jo	-3738
▁işi̇d	-3739
▁gidiyor	-3740
▁yasal	-3741
emen	-3742
▁meclisi	-3743
yaspor	-3744
▁cumhurbaşkan	-3745
mel	-3746
-0	-3747
gü	-3748
▁bi̇r	-3749
▁rest	-3750
▁ayk	-3751
▁ilçesi	-3752
▁çalışması	-3753
▁seyahat	-3754
▁toplantısında	-3755
▁açılan	-3756
▁üye	-3757
▁i̇lç	-3758
larca	-3759
▁komisyon	-3760
▁doğum	-3761
mediğini	-3762
▁ulaştı	-3763
▁motor	-3764
amaya	-3765
▁korum	-3766
▁hafif	-3767
▁yalan	-3768
▁boyut	-3769
mediği	-3770
▁emre	-3771
ron	-3772
▁fayd	-3773
iydi	-3774
lili	-3775
▁birim	-3776
▁sakin	-3777
ülebilir	-3778
▁bilgiye	-3779
▁antren	-3780
▁taşıyan	-3781
▁görünt	-3782
▁dolu	-3783
etik	-3784
paşa	-3785
▁sonuna	-3786
▁başlayacak	-3787
▁istedik	-3788
ku	-3789
▁rekor	-3790
▁hür	-3791
▁halkın	-3792
▁santr	-3793
▁saray	-3794
▁ameliyat	-3795
▁selçuk	-3796
▁konum	-3797
▁etmiş	-3798
ılma	-3799
▁hedi	-3800
▁galib	-3801
▁devletin	-3802
▁odası	-3803
ülüyor	-3804
lanma	-3805
▁mir	-3806
▁ambul	-3807
▁oto	-3808
anlar	-3809
▁abdullah	-3810
lamaz	-3811
▁kaçır	-3812
▁açıklaması	-3813
▁imk	-3814
▁kurulan	-3815
▁alışveriş	-3816
masın	-3817
▁lib	-3818
leniyor	-3819
elerle	-3820
▁öğ	-3821
erbaycan	-3822
eceğine	-3823
▁kulübü	-3824
▁rah	-3825
▁bakanlık	-3826
▁çerçevesinde	-3827
▁değerli	-3828
▁reh	-3829
lığına	-3830
▁restor	-3831
▁içi	-3832
▁yetk	-3833
▁şef	-3834
▁müzaker	-3835
▁bebek	-3836
▁halde	-3837
▁kaydeden	-3838
▁ekipler	-3839
stik	-3840
▁kullandığı	-3841
▁tez	-3842
▁rahatsız	-3843
▁gaziantep	-3844
düm	-3845
▁taban	-3846
▁ulaştır	-3847
▁sürüc	-3848
▁ilişki	-3849
▁olağan	-3850
▁yedi	-3851
▁özellik	-3852
▁yıla	-3853
▁saç	-3854
▁kendilerine	-3855
nu	-3856
▁i̇spanya	-3857
emin	-3858
▁açıklamaya	-3859
▁ce	-3860
▁ticari	-3861
▁karab	-3862
▁(1	-3863
elt	-3864
▁olmasını	-3865
▁ayır	-3866
▁insanları	-3867
▁üzerindeki	-3868
▁çıkma	-3869
larım	-3870
▁sayısının	-3871
▁öncesinde	-3872
▁suçundan	-3873
▁savaşı	-3874
================	-3875
▁and	-3876
edeki	-3877
▁başken	-3878
▁çi	-3879
▁i̇yi	-3880
ılmasına	-3881
▁emin	-3882
▁hızla	-3883
▁yaptığını	-3884
▁baraj	-3885
yi̇	-3886
▁şeyi	-3887
slan	-3888
▁direktörü	-3889
▁yerleştir	-3890
▁atık	-3891
▁servis	-3892
▁sultan	-3893
▁kazandı	-3894
▁esas	-3895
▁fizik	-3896
▁sonuçları	-3897
▁düşen	-3898
sh	-3899
▁iletişime	-3900
zan	-3901
▁ortadan	-3902
▁mersin	-3903
▁metin	-3904
lerimizin	-3905
▁port	-3906
▁2015	-3907
şe	-3908
keti	-3909
▁şeyler	-3910
▁düşünc	-3911
eceğimiz	-3912
▁kişilik	-3913
▁alınması	-3914
▁siy	-3915
▁olacaktır	-3916
▁kadınların	-3917
ond	-3918
▁sokağa	-3919
ilmişti	-3920
ger	-3921
▁%	-3922
▁pil	-3923
tarı	-3924
▁çö	-3925
▁(2	-3926
alya	-3927
▁kişiye	-3928
▁300	-3929
▁i̇mamoğlu	-3930
isa	-3931
▁istihdam	-3932
▁to	-3933
▁düşüş	-3934
süz	-3935
▁197	-3936
▁gazetesi	-3937
▁zafer	-3938
isyen	-3939
▁hus	-3940
▁biliyor	-3941
emi	-3942
▁şarkı	-3943
ılarak	-3944
dıktan	-3945
▁olursa	-3946
▁aktaran	-3947
▁dağıt	-3948
▁dha	-3949
▁örne	-3950
▁harekete	-3951
vik	-3952
▁sizin	-3953
▁ade	-3954
.00'	-3955
▁verg	-3956
▁moder	-3957
enek	-3958
▁doğrudan	-3959
▁akar	-3960
üstü	-3961
▁i̇r	-3962
▁paylaştı	-3963
istik	-3964
▁konuk	-3965
esiz	-3966
lıkla	-3967
▁ödem	-3968
ğla	-3969
▁bulunduğunu	-3970
▁mali	-3971
▁profes	-3972
▁olmuş	-3973
▁valisi	-3974
▁küt	-3975
▁onlara	-3976
yol	-3977
▁metrek	-3978
▁yükseldi	-3979
▁takdir	-3980
▁2022	-3981
▁otobüs	-3982
▁rö	-3983
▁azerbaycan	-3984
▁nedir	-3985
▁edilecek	-3986
▁gözlem	-3987
iyiz	-3988
gulan	-3989
▁ta	-3990
▁rad	-3991
▁i̇ddi	-3992
amet	-3993
▁tır	-3994
▁endek	-3995
▁suriy	-3996
▁olayın	-3997
▁ilişkiler	-3998
▁yapmış	-3999
▁sekret	-4000
▁toplumsal	-4001
▁sivas	-4002
▁gördük	-4003
üler	-4004
▁kaldırıldı	-4005
tılı	-4006
▁itiraz	-4007
▁terk	-4008
▁doğrult	-4009
öğr	-4010
▁şeri	-4011
▁sahil	-4012
▁heyet	-4013
▁ec	-4014
▁ödülü	-4015
▁etkisi	-4016
▁hasar	-4017
▁harc	-4018
▁fikir	-4019
▁anlaşma	-4020
▁i̇dar	-4021
▁ihal	-4022
▁gazete	-4023
elerinden	-4024
▁ülkelerin	-4025
▁ortalama	-4026
▁üstün	-4027
hay	-4028
▁temas	-4029
▁itibarı	-4030
▁artan	-4031
uyoruz	-4032
▁bol	-4033
▁değin	-4034
sche	-4035
▁sta	-4036
▁go	-4037
▁karadeniz	-4038
ons	-4039
lığın	-4040
akkale	-4041
ği̇	-4042
▁aşağı	-4043
mekte	-4044
▁maliyet	-4045
zı	-4046
▁çağır	-4047
▁kore	-4048
▁gazeteci	-4049
▁performans	-4050
▁maçında	-4051
▁maçta	-4052
▁buldu	-4053
▁dilek	-4054
dığım	-4055
qu	-4056
▁uzat	-4057
▁arabistan	-4058
köy	-4059
▁büyükelç	-4060
▁konuşma	-4061
▁yoktur	-4062
▁güvenli	-4063
▁gösteri	-4064
liyet	-4065
▁mobil	-4066
▁aldığını	-4067
▁siyah	-4068
▁tecr	-4069
▁caddesi	-4070
ash	-4071
dil	-4072
▁sayf	-4073
▁düzenlediği	-4074
▁mit	-4075
▁abonelik	-4076
iri	-4077
▁yağmur	-4078
▁45	-4079
▁sürecinde	-4080
▁saf	-4081
▁başkenti	-4082
▁mutlaka	-4083
▁müt	-4084
▁key	-4085
▁itfaiye	-4086
▁yönetmen	-4087
▁bıçak	-4088
▁ihtiyac	-4089
▁deng	-4090
rı	-4091
▁kanı	-4092
iği	-4093
▁sap	-4094
▁teşvik	-4095
ales	-4096
▁kupası	-4097
▁festival	-4098
▁neredeyse	-4099
▁aray	-4100
▁katıldığı	-4101
▁anlamına	-4102
▁açıldı	-4103
▁uçuş	-4104
▁işi	-4105
▁yaygın	-4106
yer	-4107
▁havalimanı	-4108
▁tuz	-4109
▁ermeni	-4110
▁libya	-4111
ud	-4112
▁yapar	-4113
uç	-4114
▁rob	-4115
▁kimlik	-4116
bek	-4117
▁unsur	-4118
▁bahçeli	-4119
▁diş	-4120
▁bomb	-4121
emiş	-4122
▁süt	-4123
▁karay	-4124
▁gurur	-4125
▁kök	-4126
▁şirketi	-4127
egor	-4128
▁putin	-4129
▁süredir	-4130
▁aşk	-4131
▁trabzonspor	-4132
▁duygu	-4133
▁hüc	-4134
memiş	-4135
▁kadının	-4136
▁almaya	-4137
ılmaz	-4138
hane	-4139
▁sön	-4140
▁açıklandı	-4141
sans	-4142
fat	-4143
.5	-4144
▁arttır	-4145
▁başkanlık	-4146
ele	-4147
▁çıkacak	-4148
▁yaşandı	-4149
▁karakter	-4150
▁görmek	-4151
▁cer	-4152
▁gizli	-4153
unus	-4154
▁size	-4155
alandır	-4156
▁beğ	-4157
undaki	-4158
▁soylu	-4159
▁içine	-4160
nam	-4161
▁görevi	-4162
▁doğrultusunda	-4163
-3	-4164
▁36	-4165
antaj	-4166
barat	-4167
▁osmanlı	-4168
esin	-4169
▁başkanlığ	-4170
▁kategor	-4171
▁sağlayan	-4172
▁cihaz	-4173
▁başkent	-4174
▁rez	-4175
▁ölü	-4176
drum	-4177
▁pop	-4178
▁çoğu	-4179
▁annesi	-4180
ikat	-4181
▁malat	-4182
▁noktada	-4183
',	-4184
▁bağış	-4185
▁uzmanı	-4186
▁tanık	-4187
▁vakfı	-4188
▁gazze	-4189
▁2014	-4190
▁veril	-4191
▁afganistan	-4192
▁haberi	-4193
usuf	-4194
▁açıklamalarda	-4195
▁mim	-4196
▁buraya	-4197
▁kayseri	-4198
▁pandemi	-4199
▁sıralarında	-4200
▁milletler	-4201
▁hükümetin	-4202
▁fon	-4203
▁şeker	-4204
▁çalıştı	-4205
▁erzurum	-4206
▁yapılıyor	-4207
▁i̇kinci	-4208
kal	-4209
yüz	-4210
▁gelenek	-4211
▁denildi	-4212
.".	-4213
▁sorus	-4214
▁hatırla	-4215
▁tartışma	-4216
kiler	-4217
fik	-4218
▁yaşlı	-4219
elerden	-4220
▁sayılı	-4221
.201	-4222
▁abonelere	-4223
▁işgal	-4224
iber	-4225
▁tutuklan	-4226
▁desteğ	-4227
▁sebebiyle	-4228
▁itibarıyla	-4229
▁muhammed	-4230
▁akın	-4231
▁32	-4232
tt	-4233
▁topr	-4234
isel	-4235
inizi	-4236
▁geçiniz	-4237
▁3'	-4238
nik	-4239
▁1,	-4240
lardaki	-4241
▁2'	-4242
▁özetlenerek	-4243
acılık	-4244
ğün	-4245
aa	-4246
▁düşman	-4247
ışma	-4248
-4	-4249
ps	-4250
▁zeytin	-4251
lardır	-4252
▁ihtiyacı	-4253
büs	-4254
▁çalışmalarını	-4255
▁değişikliği	-4256
lis	-4257
rist	-4258
▁hastanede	-4259
▁özgürlük	-4260
▁som	-4261
▁yapıldığı	-4262
▁edip	-4263
▁eve	-4264
ülk	-4265
▁bis	-4266
▁aktardı	-4267
▁paket	-4268
okul	-4269
▁kör	-4270
▁belirlendi	-4271
▁34	-4272
utsche	-4273
▁bün	-4274
▁gücü	-4275
▁tahliye	-4276
▁mon	-4277
▁başlık	-4278
▁paris	-4279
▁çanakkale	-4280
cunun	-4281
aladı	-4282
lardı	-4283
▁biden	-4284
▁yusuf	-4285
?”	-4286
▁geçici	-4287
▁kazanan	-4288
▁düzenlendi	-4289
▁ambulans	-4290
▁bekliyor	-4291
▁kaş	-4292
▁biy	-4293
▁slo	-4294
▁dönüştür	-4295
bette	-4296
▁sorgu	-4297
▁birleşmiş	-4298
▁mühendis	-4299
▁boğaz	-4300
▁hisset	-4301
ebiliyor	-4302
▁tüketim	-4303
▁açıklamasında	-4304
isar	-4305
▁uğra	-4306
▁od	-4307
▁tim	-4308
▁maske	-4309
fak	-4310
sever	-4311
▁ulaşım	-4312
▁şük	-4313
▁70	-4314
göl	-4315
mut	-4316
ğının	-4317
▁yayınlanan	-4318
▁karşılan	-4319
▁yenilen	-4320
▁yeter	-4321
▁sağlığı	-4322
▁soğuk	-4323
▁yuk	-4324
▁barın	-4325
eor	-4326
memiz	-4327
▁di̇	-4328
▁bodrum	-4329
▁öztürk	-4330
▁ülkeye	-4331
▁oranında	-4332
▁çocukları	-4333
are	-4334
▁alev	-4335
hi	-4336
▁hatay	-4337
yaş	-4338
▁coğraf	-4339
▁şer	-4340
ana	-4341
▁yah	-4342
▁şiş	-4343
▁80	-4344
▁muhaf	-4345
▁uzay	-4346
mara	-4347
▁günümüz	-4348
layıcı	-4349
▁kuvvetleri	-4350
▁hakem	-4351
▁hazırlan	-4352
▁sorumluluk	-4353
maktan	-4354
▁krizi	-4355
ülmesi	-4356
▁belirlenen	-4357
▁muğla	-4358
enler	-4359
▁beklenen	-4360
▁belirtilen	-4361
ılım	-4362
yım	-4363
▁davut	-4364
alesef	-4365
tak	-4366
▁istifa	-4367
▁tasarım	-4368
▁varlık	-4369
cağına	-4370
▁ithal	-4371
00'	-4372
▁temsilcisi	-4373
▁olmasına	-4374
▁buradan	-4375
ald	-4376
bon	-4377
▁hayatı	-4378
ite	-4379
▁kanunu	-4380
▁nedeni	-4381
▁görevl	-4382
▁istis	-4383
▁öt	-4384
▁dahi	-4385
▁196	-4386
▁büny	-4387
▁ifadeleri	-4388
luluğu	-4389
▁edildiğini	-4390
▁işe	-4391
▁sözlerine	-4392
▁gelin	-4393
▁hindi	-4394
▁zek	-4395
▁tanın	-4396
24	-4397
nci	-4398
▁albay	-4399
▁köpek	-4400
car	-4401
▁kamyon	-4402
▁tane	-4403
eğini	-4404
▁ves	-4405
▁maruz	-4406
▁arası	-4407
▁gu	-4408
▁bütç	-4409
▁olmuştu	-4410
giz	-4411
çın	-4412
ens	-4413
▁sendik	-4414
düz	-4415
▁organize	-4416
▁hassas	-4417
dy	-4418
▁yürütülen	-4419
▁york	-4420
▁kendilerini	-4421
▁olduğumuz	-4422
▁getirildi	-4423
gül	-4424
▁kalab	-4425
▁çiçek	-4426
▁çetin	-4427
▁sözlerini	-4428
▁sürdü	-4429
ücu	-4430
▁hakaret	-4431
▁tör	-4432
▁dam	-4433
▁döndü	-4434
▁civarında	-4435
▁yerini	-4436
▁aktif	-4437
ilmesini	-4438
▁ödeme	-4439
▁katk	-4440
▁kongr	-4441
▁ailesi	-4442
nak	-4443
▁alıp	-4444
▁aykırı	-4445
▁dosy	-4446
ıştır	-4447
▁bilgis	-4448
▁döviz	-4449
▁mağlu	-4450
▁sorunun	-4451
ıf	-4452
▁heyecan	-4453
▁kişiyi	-4454
leyecek	-4455
eld	-4456
▁tık	-4457
▁yoksa	-4458
▁emir	-4459
▁tren	-4460
mamız	-4461
▁tutuklandı	-4462
▁1'	-4463
▁modern	-4464
▁bölgedeki	-4465
▁ağrı	-4466
▁sıf	-4467
▁organizasyon	-4468
▁engelli	-4469
yiz	-4470
▁beden	-4471
▁dolarlık	-4472
▁olacağı	-4473
▁çök	-4474
▁koal	-4475
ington	-4476
▁öğrencilerin	-4477
▁kitab	-4478
▁standar	-4479
▁doldur	-4480
▁pazartesi	-4481
▁anlayış	-4482
▁yiy	-4483
▁komutanlığı	-4484
▁bununla	-4485
▁bağlantı	-4486
▁evinde	-4487
▁güvenliği	-4488
şet	-4489
▁suyu	-4490
▁parçası	-4491
▁ra	-4492
▁örneğin	-4493
▁ins	-4494
tıklarını	-4495
▁aracılığı	-4496
uncu	-4497
▁kişisel	-4498
▁kral	-4499
▁çıkart	-4500
ese	-4501
▁4.	-4502
▁galibiyet	-4503
▁yakalandı	-4504
▁etraf	-4505
ğinden	-4506
▁oyunu	-4507
▁yenil	-4508
meyecek	-4509
▁müdürlüğ	-4510
▁i̇yi̇	-4511
uyla	-4512
▁makin	-4513
embe	-4514
ire	-4515
▁görüyoruz	-4516
▁yakal	-4517
▁yaşar	-4518
▁federasyonu	-4519
▁mos	-4520
▁başak	-4521
rel	-4522
▁kimdir	-4523
▁halkı	-4524
▁protok	-4525
▁salgını	-4526
▁zih	-4527
▁felak	-4528
▁yalnızca	-4529
▁adliy	-4530
kişehir	-4531
lerimize	-4532
▁sevg	-4533
▁istediği	-4534
▁eğitimi	-4535
▁plakalı	-4536
▁halen	-4537
▁car	-4538
tacak	-4539
oto	-4540
so	-4541
▁sağlaya	-4542
▁tac	-4543
▁çağrı	-4544
▁insanın	-4545
▁başlıyor	-4546
müyor	-4547
▁büyüme	-4548
suzluk	-4549
efa	-4550
sinden	-4551
▁basket	-4552
▁sürdürdü	-4553
▁toplantıda	-4554
ohn	-4555
▁öldü	-4556
▁senar	-4557
▁çocuğun	-4558
▁ekiplerin	-4559
▁adını	-4560
▁rüz	-4561
ıza	-4562
lemeye	-4563
▁şahıs	-4564
▁stat	-4565
▁i̇m	-4566
ndaki	-4567
▁welle	-4568
▁sağlayacak	-4569
macı	-4570
▁yaptığımız	-4571
▁90	-4572
▁çekiyor	-4573
▁rektör	-4574
▁dokun	-4575
▁zorlu	-4576
▁malzem	-4577
▁numar	-4578
▁birinin	-4579
▁kilis	-4580
▁fen	-4581
sar	-4582
land	-4583
▁kentinde	-4584
▁gerçekleşti	-4585
▁arttı	-4586
emeyen	-4587
▁vücu	-4588
▁hindistan	-4589
▁olun	-4590
yk	-4591
▁devleti	-4592
▁festivali	-4593
▁çavuşoğlu	-4594
▁dönemi	-4595
▁sürdürüyor	-4596
malara	-4597
▁gerçekleşen	-4598
▁ürünleri	-4599
▁ege	-4600
elendir	-4601
biliyor	-4602
gari	-4603
▁önde	-4604
eceğim	-4605
▁çor	-4606
▁değişim	-4607
▁kaynağ	-4608
▁sunuyor	-4609
21	-4610
▁oyla	-4611
▁bedel	-4612
▁bulut	-4613
▁ittifak	-4614
▁reform	-4615
▁amir	-4616
▁muhalif	-4617
ilmiştir	-4618
▁doz	-4619
▁maalesef	-4620
▁gram	-4621
▁koc	-4622
▁mic	-4623
▁kelim	-4624
▁yüzyıl	-4625
▁olayla	-4626
elikop	-4627
▁eb	-4628
▁bilgisay	-4629
▁hoc	-4630
▁ren	-4631
▁şub	-4632
▁2020'	-4633
▁dizi	-4634
▁yapıyoruz	-4635
▁2019'	-4636
imizden	-4637
arya	-4638
pg	-4639
▁komutanı	-4640
▁adeta	-4641
▁elbette	-4642
yken	-4643
▁rejim	-4644
emey	-4645
▁korumak	-4646
cının	-4647
▁yü	-4648
▁aziz	-4649
▁kum	-4650
▁eğlen	-4651
riyet	-4652
▁memlek	-4653
▁ümit	-4654
▁33	-4655
▁gazi	-4656
▁sim	-4657
ülent	-4658
▁almış	-4659
▁hoş	-4660
▁protokol	-4661
▁mün	-4662
▁çöp	-4663
▁lo	-4664
▁bakanlı	-4665
si̇	-4666
▁birik	-4667
lâ	-4668
▁helikop	-4669
▁otomatik	-4670
▁özer	-4671
▁bask	-4672
▁gençler	-4673
▁buz	-4674
▁çıktığı	-4675
▁takv	-4676
▁inceleme	-4677
▁etmişti	-4678
▁ücretsiz	-4679
▁vic	-4680
sü	-4681
▁istikrar	-4682
cin	-4683
limp	-4684
▁redde	-4685
▁kararını	-4686
lari	-4687
▁çekil	-4688
▁değerlendirme	-4689
▁referan	-4690
▁düzenleme	-4691
ff	-4692
▁alım	-4693
elerek	-4694
▁eskişehir	-4695
▁referans	-4696
ata	-4697
ürken	-4698
▁pozisyon	-4699
▁65	-4700
ilmesine	-4701
kel	-4702
▁ismi	-4703
▁bahse	-4704
▁tanıt	-4705
layıp	-4706
▁suçla	-4707
▁yatır	-4708
▁kullanıl	-4709
urfa	-4710
▁sağlıyor	-4711
▁cumartesi	-4712
ashington	-4713
▁durumun	-4714
adet	-4715
esi̇	-4716
gah	-4717
yeni	-4718
i̇h	-4719
▁yakından	-4720
▁yukarı	-4721
▁john	-4722
▁yılından	-4723
▁çeyrek	-4724
▁salı	-4725
âr	-4726
▁aktiv	-4727
▁çocuğu	-4728
▁ib	-4729
▁hizmetleri	-4730
ımızda	-4731
▁akıllı	-4732
▁altyapı	-4733
▁yıllardır	-4734
▁bülent	-4735
▁tüf	-4736
emek	-4737
▁merkezinde	-4738
▁i̇şleri	-4739
alardan	-4740
▁bazen	-4741
▁iddianam	-4742
▁yaşıyor	-4743
▁olayı	-4744
▁dikkate	-4745
ezil	-4746
▁atı	-4747
alarla	-4748
çu	-4749
▁kültürel	-4750
▁eklen	-4751
▁doç	-4752
ileş	-4753
▁biçimde	-4754
▁sch	-4755
▁raporda	-4756
sını	-4757
▁uğraş	-4758
▁edebiyat	-4759
tansiy	-4760
▁kaynağı	-4761
▁olmadı	-4762
lığının	-4763
▁uefa	-4764
▁birisi	-4765
▁olimp	-4766
▁seçmen	-4767
▁toplumun	-4768
mit	-4769
▁kok	-4770
▁hastalığı	-4771
▁davranış	-4772
cer	-4773
▁kullanan	-4774
lasman	-4775
▁yaşat	-4776
bal	-4777
▁hollanda	-4778
▁politika	-4779
▁doğa	-4780
▁sürdürülebilir	-4781
▁kaldığı	-4782
gat	-4783
▁rakip	-4784
ster	-4785
▁yaralanan	-4786
▁muhtar	-4787
▁lond	-4788
.3	-4789
tığımız	-4790
▁temin	-4791
uyorum	-4792
▁coşk	-4793
▁üretimi	-4794
▁kalkınma	-4795
stit	-4796
▁japonya	-4797
▁sakat	-4798
▁corona	-4799
lerindeki	-4800
▁liraya	-4801
▁oynan	-4802
▁ölçü	-4803
▁yüzünden	-4804
▁maddi	-4805
▁şanlı	-4806
▁asya	-4807
▁ayrıl	-4808
▁çalışıyoruz	-4809
▁fiyatı	-4810
▁çıkardı	-4811
ağın	-4812
dikten	-4813
▁kazada	-4814
itif	-4815
ilerden	-4816
▁raporu	-4817
i̇li̇	-4818
▁vit	-4819
▁gönüllü	-4820
▁yaparken	-4821
▁bilgilendir	-4822
▁tutan	-4823
▁duvar	-4824
▁bütçe	-4825
gus	-4826
line	-4827
▁geleceğ	-4828
▁içeren	-4829
▁hu	-4830
▁işçi	-4831
abilirsiniz	-4832
▁ism	-4833
▁asgari	-4834
ğuna	-4835
▁sandık	-4836
▁potansiy	-4837
ry	-4838
▁yaşama	-4839
▁arkasında	-4840
▁washington	-4841
▁deutsche	-4842
ayıf	-4843
kim	-4844
▁sinema	-4845
▁2023	-4846
▁görülüyor	-4847
abilmek	-4848
▁mevki	-4849
▁orhan	-4850
edik	-4851
▁göreve	-4852
▁brezil	-4853
▁komşu	-4854
▁yetki	-4855
ice	-4856
▁ölen	-4857
▁bisiklet	-4858
▁kariyer	-4859
▁kalın	-4860
▁yayımlanan	-4861
▁afet	-4862
▁diyal	-4863
▁yükselt	-4864
layacak	-4865
▁şirketin	-4866
▁sahne	-4867
eyn	-4868
ker	-4869
atik	-4870
▁gerektiği	-4871
▁başladık	-4872
▁olmadan	-4873
▁sorunları	-4874
▁hürriyet	-4875
▁alkol	-4876
▁şaşır	-4877
▁üyeli	-4878
▁forma	-4879
▁nik	-4880
▁polisin	-4881
ansı	-4882
▁sahada	-4883
▁filmi	-4884
▁i̇nşallah	-4885
▁denet	-4886
▁ayrıldı	-4887
▁santral	-4888
va	-4889
▁pozitif	-4890
▁sergil	-4891
▁verilmesi	-4892
▁aldık	-4893
▁planı	-4894
▁yaklaşım	-4895
▁bulaş	-4896
▁zayıf	-4897
▁hekim	-4898
ço	-4899
▁kısmı	-4900
▁nitelik	-4901
▁alama	-4902
▁aslan	-4903
▁içindeki	-4904
lendiği	-4905
▁ic	-4906
10	-4907
▁marmara	-4908
▁reklam	-4909
▁dolara	-4910
ard	-4911
▁mezun	-4912
▁hepsi	-4913
larken	-4914
abileceği	-4915
▁2011	-4916
▁tedavisi	-4917
▁istediğini	-4918
▁anı	-4919
lediğini	-4920
▁soh	-4921
arım	-4922
▁ülkemizde	-4923
▁ülkemizin	-4924
▁2013	-4925
▁içerir	-4926
▁gerekti	-4927
▁gelip	-4928
▁nec	-4929
▁altern	-4930
▁virüsü	-4931
▁oldukları	-4932
▁denizli	-4933
▁koalisyon	-4934
▁sanı	-4935
▁imzalan	-4936
▁verdiğini	-4937
asi	-4938
ılıp	-4939
▁uyan	-4940
▁elinde	-4941
hak	-4942
üye	-4943
▁dönemin	-4944
▁dalg	-4945
▁bilgisayar	-4946
▁bölgesel	-4947
▁ülkeleri	-4948
▁terörle	-4949
▁turn	-4950
▁derg	-4951
▁yapımı	-4952
▁dini	-4953
▁olası	-4954
▁yeme	-4955
▁harit	-4956
▁yolda	-4957
makla	-4958
lerdir	-4959
▁yararlan	-4960
▁deneyim	-4961
▁kavg	-4962
▁kaybı	-4963
▁itibariyle	-4964
ete	-4965
▁hediye	-4966
▁mini	-4967
▁arda	-4968
▁tamamladı	-4969
▁nesil	-4970
eğin	-4971
▁kurtarma	-4972
▁geçirildi	-4973
ilerle	-4974
▁yavuz	-4975
▁aracılığıyla	-4976
▁kud	-4977
▁ettiklerini	-4978
ks	-4979
▁rast	-4980
▁kalma	-4981
kova	-4982
▁kritik	-4983
▁anket	-4984
▁milletin	-4985
▁na	-4986
▁arslan	-4987
▁alternatif	-4988
▁gergin	-4989
▁çalışmalarına	-4990
▁ışık	-4991
▁geride	-4992
▁oluştu	-4993
▁ayda	-4994
▁adil	-4995
▁yalçın	-4996
▁egemen	-4997
ayacak	-4998
▁sunu	-4999
▁bayr	-5000
▁kırık	-5001
▁zorunlu	-5002
ated	-5003
▁açıdan	-5004
osiklet	-5005
▁kilometr	-5006
hu	-5007
▁londra	-5008
▁herkese	-5009
mayın	-5010
▁milliyet	-5011
▁dis	-5012
▁geçirdi	-5013
▁rekabet	-5014
▁füz	-5015
▁gelmiş	-5016
▁salgının	-5017
▁özdemir	-5018
▁maz	-5019
▁enstit	-5020
▁sözcü	-5021
liliği	-5022
▁lisans	-5023
▁kimsenin	-5024
▁davutoğlu	-5025
ımıyla	-5026
▁evine	-5027
ıyorlar	-5028
rag	-5029
▁olanlar	-5030
oför	-5031
öğretim	-5032
▁manisa	-5033
▁kesinlikle	-5034
▁depo	-5035
ai	-5036
elal	-5037
▁dolaş	-5038
tıkları	-5039
▁bilir	-5040
▁noktasında	-5041
▁fiyatları	-5042
▁nih	-5043
▁alması	-5044
▁tecrüb	-5045
▁aracın	-5046
▁işbirliği	-5047
şembe	-5048
▁malatya	-5049
▁gerçekleştirdi	-5050
▁motosiklet	-5051
rid	-5052
▁gelerek	-5053
▁donald	-5054
▁nefes	-5055
▁beyan	-5056
▁çam	-5057
▁ur	-5058
ilerde	-5059
▁dernek	-5060
▁aşa	-5061
▁kendine	-5062
▁zinc	-5063
▁verir	-5064
iner	-5065
▁helikopter	-5066
▁kocaeli	-5067
▁telefonu	-5068
▁bakanlığ	-5069
▁hatt	-5070
▁bilimsel	-5071
-20	-5072
▁otop	-5073
leyici	-5074
adır	-5075
,7	-5076
▁cenaze	-5077
▁verme	-5078
stur	-5079
liğiyle	-5080
▁37	-5081
▁şoför	-5082
iyorlar	-5083
book	-5084
▁suy	-5085
alarından	-5086
,4	-5087
orta	-5088
▁yapıldığını	-5089
.4	-5090
▁niyet	-5091
▁yönlendir	-5092
ileştir	-5093
▁belirtiliyor	-5094
eter	-5095
şamba	-5096
▁2018'	-5097
▁gerçe	-5098
zi	-5099
▁tazmin	-5100
gener	-5101
▁merkel	-5102
laştık	-5103
▁pilot	-5104
▁berlin	-5105
▁fah	-5106
▁tatlı	-5107
▁verilecek	-5108
▁misaf	-5109
▁tir	-5110
▁geçerli	-5111
▁piş	-5112
▁kuy	-5113
▁köyü	-5114
▁evet	-5115
▁çel	-5116
▁i̇sveç	-5117
adir	-5118
yat	-5119
▁perşembe	-5120
landığı	-5121
▁sahte	-5122
ding	-5123
▁muhtem	-5124
ıştı	-5125
,6	-5126
▁zorluk	-5127
▁operasyonu	-5128
biy	-5129
▁kullanarak	-5130
▁akr	-5131
▁deplasman	-5132
▁öncelikle	-5133
bel	-5134
▁irade	-5135
▁ilçesine	-5136
▁yılının	-5137
rük	-5138
▁başlatıldı	-5139
▁demirtaş	-5140
leye	-5141
▁kendim	-5142
▁referandum	-5143
▁yüzlerce	-5144
▁kapsamda	-5145
▁pol	-5146
▁op	-5147
▁indirim	-5148
▁anlaşması	-5149
▁ilgilen	-5150
▁ihtimal	-5151
ess	-5152
oli	-5153
▁başlatılan	-5154
reti	-5155
▁yör	-5156
▁standart	-5157
,1	-5158
▁yur	-5159
▁medy	-5160
▁yoksul	-5161
uel	-5162
pe	-5163
▁meydanı	-5164
▁söylem	-5165
uki	-5166
▁kaps	-5167
▁aj	-5168
▁form	-5169
▁ten	-5170
▁çarşamba	-5171
▁sohbet	-5172
general	-5173
▁ekledi	-5174
▁yazdı	-5175
▁ordusu	-5176
▁parlamento	-5177
dirne	-5178
▁noktalarını	-5179
▁vo	-5180
▁avantaj	-5181
★★	-5182
▁yazarı	-5183
▁kavuş	-5184
tey	-5185
▁moskova	-5186
▁yapacağız	-5187
▁400	-5188
▁arkadaşı	-5189
▁duruma	-5190
memesi	-5191
▁finansal	-5192
▁olacağız	-5193
▁yoluyla	-5194
▁sıfır	-5195
ester	-5196
▁tasarru	-5197
▁saatte	-5198
▁bilgileri	-5199
▁ekiplerinin	-5200
▁olmalı	-5201
oper	-5202
mu	-5203
▁şiir	-5204
▁2012	-5205
▁ast	-5206
i̇stanbul	-5207
▁yürür	-5208
gesi	-5209
▁verici	-5210
▁uc	-5211
▁merkezli	-5212
▁insanı	-5213
▁başlangı	-5214
▁je	-5215
▁bulan	-5216
▁kongre	-5217
▁kendisinin	-5218
▁gördüğü	-5219
malarına	-5220
▁taşıma	-5221
▁yanına	-5222
▁muhafaz	-5223
▁basketbol	-5224
▁kıyı	-5225
▁cengiz	-5226
▁38	-5227
▁müsabak	-5228
sy	-5229
,2	-5230
▁mücadelede	-5231
▁açan	-5232
▁olimpiyat	-5233
▁kaçın	-5234
▁güçleri	-5235
▁ikram	-5236
ste	-5237
▁söndür	-5238
▁attığı	-5239
sem	-5240
▁hayırlı	-5241
öyl	-5242
bor	-5243
işi	-5244
▁canlandır	-5245
▁kavram	-5246
▁operasyonda	-5247
▁banka	-5248
▁cey	-5249
▁akş	-5250
▁yetkilileri	-5251
▁heyeti	-5252
ahh	-5253
espor	-5254
elidir	-5255
related	-5256
▁biliyoruz	-5257
▁görevini	-5258
▁idari	-5259
:00	-5260
müştü	-5261
tanın	-5262
▁başladığı	-5263
,3	-5264
cisi	-5265
▁zehir	-5266
▁mimar	-5267
▁duyar	-5268
▁maliye	-5269
▁parkı	-5270
▁48	-5271
▁vermeye	-5272
▁halka	-5273
▁misafir	-5274
lanmış	-5275
▁olduğunun	-5276
ınıyor	-5277
▁nö	-5278
▁150	-5279
▁i̇ttifak	-5280
▁katılımcı	-5281
▁vererek	-5282
bugün	-5283
▁uygulaması	-5284
▁ır	-5285
lüğe	-5286
şek	-5287
tup	-5288
▁lok	-5289
▁dönüm	-5290
▁ağı	-5291
▁bugünkü	-5292
kesi	-5293
▁bizler	-5294
▁ekmek	-5295
▁kıya	-5296
▁beklent	-5297
zen	-5298
▁stratejik	-5299
▁burak	-5300
şi	-5301
▁geleneksel	-5302
▁dışına	-5303
▁i̇d	-5304
▁rüzgar	-5305
▁düzenledi	-5306
▁beğen	-5307
▁takımın	-5308
acaktır	-5309
▁tasarruf	-5310
lib	-5311
▁alb	-5312
▁kadir	-5313
▁vakıf	-5314
,8	-5315
▁sağlam	-5316
-201	-5317
▁rahmet	-5318
rim	-5319
▁lu	-5320
▁karşısına	-5321
▁karşılı	-5322
tc	-5323
▁ölçüde	-5324
▁arka	-5325
lerdeki	-5326
▁uygulanan	-5327
▁yolunda	-5328
▁devrim	-5329
▁davası	-5330
▁maçın	-5331
▁inti	-5332
ulmaz	-5333
lerken	-5334
▁suriyeli	-5335
▁kanıt	-5336
▁eriş	-5337
stagram	-5338
anda	-5339
▁projenin	-5340
lus	-5341
▁karantin	-5342
▁yerinden	-5343
▁çalışmaya	-5344
▁sürpr	-5345
▁süresi	-5346
▁gümüş	-5347
anya	-5348
▁vol	-5349
▁i̇bb	-5350
▁madrid	-5351
▁field	-5352
▁konuşmada	-5353
▁gelmesi	-5354
ula	-5355
ilmektedir	-5356
▁gitmek	-5357
cebook	-5358
▁bıraktı	-5359
▁sız	-5360
▁saldırgan	-5361
▁analiz	-5362
▁iade	-5363
sının	-5364
▁bakış	-5365
bank	-5366
▁olağanüstü	-5367
▁yo	-5368
▁kızıl	-5369
▁market	-5370
itesi	-5371
▁aşkın	-5372
kam	-5373
iğe	-5374
▁gayret	-5375
ğım	-5376
ilerinden	-5377
▁5.	-5378
abileceğini	-5379
▁alır	-5380
▁düzenlenecek	-5381
▁fayda	-5382
eleriyle	-5383
▁çiftç	-5384
▁federal	-5385
▁alınacak	-5386
di̇r	-5387
▁rum	-5388
esir	-5389
▁bet	-5390
▁hazine	-5391
▁olmayacak	-5392
▁dairesi	-5393
▁vermiş	-5394
▁alınarak	-5395
▁5'	-5396
▁halil	-5397
▁bulundur	-5398
ene	-5399
fan	-5400
cil	-5401
▁2010	-5402
manız	-5403
▁tarihleri	-5404
▁edirne	-5405
leyerek	-5406
▁bağır	-5407
▁sevgil	-5408
15	-5409
▁kimi	-5410
▁dedim	-5411
çılık	-5412
▁imkanı	-5413
▁böyl	-5414
▁cezalandır	-5415
▁nodes	-5416
▁prens	-5417
▁devreye	-5418
▁kahv	-5419
▁tutar	-5420
,9	-5421
amıyor	-5422
celi	-5423
▁getirilen	-5424
io	-5425
▁sekreteri	-5426
▁mesafe	-5427
▁hizmeti	-5428
▁turnuv	-5429
dk	-5430
▁hakkındaki	-5431
▁talimat	-5432
▁kamera	-5433
▁ide	-5434
▁uyum	-5435
▁karbon	-5436
▁sözleşme	-5437
▁lüb	-5438
▁dek	-5439
▁erdem	-5440
▁görüştü	-5441
▁olmuştur	-5442
inda	-5443
pt	-5444
▁işin	-5445
▁yapması	-5446
hil	-5447
▁patlama	-5448
▁inşallah	-5449
ulduğu	-5450
▁buradaki	-5451
▁metr	-5452
isiyle	-5453
▁nev	-5454
▁köş	-5455
dukları	-5456
▁ut	-5457
illa	-5458
▁amaçlı	-5459
tisi	-5460
ly	-5461
”,	-5462
▁halkının	-5463
▁dolandır	-5464
▁usul	-5465
▁haftasında	-5466
▁ertelen	-5467
▁geleceği	-5468
▁obama	-5469
ecektir	-5470
▁düzenli	-5471
▁ihraç	-5472
▁ülkeyi	-5473
▁yatırımcı	-5474
berg	-5475
▁yel	-5476
▁hadi	-5477
ami	-5478
opa	-5479
▁bölgenin	-5480
dip	-5481
malarının	-5482
▁şampiyonası	-5483
▁ters	-5484
int	-5485
▁vah	-5486
▁başından	-5487
▁talebi	-5488
▁yılına	-5489
▁sıkı	-5490
▁mağaz	-5491
▁insani	-5492
▁ahlak	-5493
▁i̇lçesi	-5494
▁genellikle	-5495
▁bekleyen	-5496
lamadı	-5497
▁söyleyerek	-5498
▁uzmanlar	-5499
▁erişim	-5500
kay	-5501
▁avukatı	-5502
▁ekrem	-5503
▁alanlarda	-5504
▁içerik	-5505
▁yerleşim	-5506
▁görüntüler	-5507
ıb	-5508
▁mahkum	-5509
▁verilerine	-5510
▁facebook	-5511
▁bekliyoruz	-5512
▁tarif	-5513
▁evi	-5514
▁turan	-5515
▁saldırıda	-5516
cum	-5517
▁şok	-5518
lor	-5519
etiyle	-5520
yonel	-5521
▁fo	-5522
▁toplamda	-5523
▁ağırlık	-5524
▁değeri	-5525
▁bec	-5526
▁mektup	-5527
▁cema	-5528
▁gereği	-5529
▁holding	-5530
▁endü	-5531
▁sakarya	-5532
▁instagram	-5533
▁sözleşmesi	-5534
▁götürüldü	-5535
▁konferans	-5536
▁hemş	-5537
ple	-5538
▁önceden	-5539
▁başsavcılığı	-5540
▁fırat	-5541
▁pa	-5542
▁dük	-5543
▁iktid	-5544
▁çalıştığı	-5545
gazi	-5546
ımın	-5547
▁taşıyor	-5548
▁daire	-5549
▁pap	-5550
▁temizlik	-5551
▁2024	-5552
▁vücud	-5553
▁alındığı	-5554
▁muhar	-5555
ücut	-5556
▁kel	-5557
▁geldik	-5558
?'	-5559
▁delil	-5560
ân	-5561
▁işlemleri	-5562
ukur	-5563
▁oyuncusu	-5564
▁turg	-5565
▁dayanışma	-5566
duklarını	-5567
▁anti	-5568
▁yargıtay	-5569
ılmıştı	-5570
▁özen	-5571
▁yaşadı	-5572
tuk	-5573
▁boyu	-5574
▁gelişim	-5575
▁vicdan	-5576
cısı	-5577
▁topu	-5578
acağım	-5579
▁töreni	-5580
▁çocuklara	-5581
▁anlar	-5582
lenin	-5583
adi	-5584
▁teşkilat	-5585
ws	-5586
▁alg	-5587
▁lisesi	-5588
▁şunu	-5589
▁büyüklüğ	-5590
▁katli	-5591
lıklar	-5592
▁endeksi	-5593
vent	-5594
▁mağlup	-5595
▁getirmek	-5596
▁tutum	-5597
▁hukuki	-5598
▁tarz	-5599
▁kulak	-5600
▁39	-5601
▁sinir	-5602
▁veri	-5603
▁kırsal	-5604
▁sahib	-5605
▁katar	-5606
▁çukur	-5607
▁sürece	-5608
▁çik	-5609
▁güler	-5610
▁yetkili	-5611
▁kudüs	-5612
▁köp	-5613
▁ju	-5614
▁yapay	-5615
▁4'	-5616
▁yerden	-5617
▁günden	-5618
▁gerektir	-5619
▁partinin	-5620
▁kararın	-5621
▁antrenman	-5622
▁tablo	-5623
lediklerini	-5624
▁hatırlatan	-5625
▁bölümünde	-5626
▁endişe	-5627
▁yasağı	-5628
▁büyü	-5629
beyaz	-5630
▁toplanan	-5631
dığının	-5632
▁ayrım	-5633
▁altındaki	-5634
▁açtığı	-5635
▁ortada	-5636
▁öğle	-5637
sit	-5638
siye	-5639
▁mültec	-5640
▁çağrısı	-5641
lilerin	-5642
siyet	-5643
▁başı	-5644
▁elektronik	-5645
▁şanlıurfa	-5646
sağ	-5647
kurmay	-5648
▁vefat	-5649
▁belirtiyor	-5650
lenmiş	-5651
▁kömür	-5652
▁sus	-5653
kaz	-5654
▁:	-5655
▁erdi	-5656
▁muhabirine	-5657
▁vücut	-5658
▁kalıcı	-5659
▁çekim	-5660
▁seçimleri	-5661
▁öldürüldü	-5662
uman	-5663
▁bilinç	-5664
▁yetersiz	-5665
biliriz	-5666
cağım	-5667
▁i̇li	-5668
▁yapılmış	-5669
1.	-5670
portaj	-5671
▁vermesi	-5672
▁girişimi	-5673
eniz	-5674
okulu	-5675
▁başakşehir	-5676
yd	-5677
▁korku	-5678
▁milyonlarca	-5679
▁sizi	-5680
▁çıkması	-5681
ğümüz	-5682
i̇yor	-5683
▁tehlikeli	-5684
▁yolculu	-5685
▁44	-5686
talyan	-5687
▁bireysel	-5688
▁mahmut	-5689
var	-5690
▁profesyonel	-5691
▁okun	-5692
▁yarım	-5693
▁istihbarat	-5694
day	-5695
▁medi	-5696
▁55	-5697
▁anım	-5698
devlet	-5699
▁si	-5700
▁isimler	-5701
▁oğl	-5702
bin	-5703
▁tebrik	-5704
▁işte	-5705
sına	-5706
▁kentte	-5707
fez	-5708
▁atöl	-5709
▁güne	-5710
▁salonu	-5711
▁balıkesir	-5712
▁çekerek	-5713
▁yoktu	-5714
amin	-5715
▁buluştur	-5716
▁i̇let	-5717
yada	-5718
▁salih	-5719
▁cil	-5720
▁milletvekilleri	-5721
yurt	-5722
▁mür	-5723
▁neh	-5724
▁harekat	-5725
▁ülkedeki	-5726
▁fuar	-5727
▁şiddetli	-5728
▁anlatıyor	-5729
ros	-5730
▁inanıyorum	-5731
▁günün	-5732
▁çalıştır	-5733
▁önder	-5734
▁star	-5735
ladığını	-5736
▁75	-5737
▁diliyorum	-5738
▁cerrah	-5739
yasal	-5740
▁gönderildi	-5741
▁apart	-5742
▁tanıtım	-5743
▁habere	-5744
olog	-5745
▁gününde	-5746
▁(3	-5747
▁projeler	-5748
▁mesajı	-5749
▁sinan	-5750
▁tedbirleri	-5751
abd	-5752
▁devletleri	-5753
ğünde	-5754
iti	-5755
▁röportaj	-5756
▁gösterdiği	-5757
▁birden	-5758
▁seçimi	-5759
▁haftada	-5760
▁vir	-5761
▁bazıları	-5762
▁şarkıcı	-5763
ilmesinin	-5764
ity	-5765
azığ	-5766
▁işler	-5767
▁zanlı	-5768
▁yükseliş	-5769
▁taraftan	-5770
rol	-5771
ciğer	-5772
▁ru	-5773
zat	-5774
▁yürüttü	-5775
kat	-5776
▁adımlar	-5777
▁suçlu	-5778
▁cüm	-5779
▁iyileş	-5780
▁olab	-5781
▁şidde	-5782
don	-5783
▁iddiasıyla	-5784
▁genelkurmay	-5785
iban	-5786
▁marka	-5787
ğumuz	-5788
▁bina	-5789
landığını	-5790
▁rezer	-5791
▁pah	-5792
▁gökhan	-5793
▁yılları	-5794
▁hizmetler	-5795
▁bırakıldı	-5796
likleri	-5797
▁fe	-5798
▁yakınları	-5799
▁i̇talyan	-5800
▁kalabalık	-5801
▁yunus	-5802
▁hit	-5803
lanacak	-5804
▁kitabı	-5805
▁belç	-5806
▁koydu	-5807
yanet	-5808
▁42	-5809
▁köt	-5810
cık	-5811
▁zira	-5812
▁korunması	-5813
▁birinc	-5814
▁düzeyde	-5815
mamış	-5816
▁skor	-5817
▁okur	-5818
▁felaket	-5819
▁davanın	-5820
duğumuz	-5821
▁2017'	-5822
▁hastane	-5823
▁ettikleri	-5824
▁resim	-5825
▁brezilya	-5826
içi	-5827
ılmasının	-5828
▁sözleri	-5829
idi	-5830
▁karara	-5831
tıyla	-5832
▁yönetiminin	-5833
:4	-5834
▁tüketic	-5835
▁mük	-5836
▁eğil	-5837
▁amerikalı	-5838
▁akl	-5839
ograf	-5840
▁yıldan	-5841
▁amac	-5842
▁tokat	-5843
▁sağlanması	-5844
ılırken	-5845
▁yazık	-5846
adı	-5847
▁netic	-5848
▁maddesi	-5849
▁yaşandığı	-5850
▁yolları	-5851
▁kullanımı	-5852
▁i̇klim	-5853
▁pakistan	-5854
▁ortamda	-5855
maraş	-5856
tefik	-5857
▁fidan	-5858
mesinden	-5859
▁oynanan	-5860
▁katliam	-5861
▁danışman	-5862
▁yansıt	-5863
▁boşan	-5864
burg	-5865
▁sigara	-5866
lılı	-5867
ilmeden	-5868
ığ	-5869
▁garan	-5870
▁evin	-5871
nü	-5872
▁kıyafet	-5873
▁beyin	-5874
▁sürpriz	-5875
▁gittik	-5876
▁ulu	-5877
▁ilginç	-5878
▁akşener	-5879
kas	-5880
ilenin	-5881
▁antik	-5882
▁gidip	-5883
▁10'	-5884
▁satışa	-5885
▁artarak	-5886
ibe	-5887
ert	-5888
▁kutlu	-5889
▁olayda	-5890
▁alak	-5891
▁lübnan	-5892
▁alana	-5893
▁değinen	-5894
▁fırt	-5895
onun	-5896
19	-5897
▁2016'	-5898
▁i̇stik	-5899
melerini	-5900
ydi	-5901
▁niteli	-5902
▁çıktığını	-5903
▁dw	-5904
▁usta	-5905
▁ırk	-5906
▁öğrencisi	-5907
çisi	-5908
▁farkın	-5909
▁niye	-5910
▁başkanvek	-5911
▁kapsamlı	-5912
▁gelişme	-5913
▁çıkarak	-5914
▁mevz	-5915
▁mevsim	-5916
▁sahipliği	-5917
▁konak	-5918
▁alanları	-5919
▁genişlet	-5920
▁sınırlı	-5921
bilirsiniz	-5922
▁saha	-5923
▁gülen	-5924
▁gözyaş	-5925
oyu	-5926
eyerek	-5927
▁mutluluk	-5928
▁platformu	-5929
▁vakit	-5930
▁aşama	-5931
▁saniye	-5932
▁elem	-5933
▁bunlardan	-5934
▁kadına	-5935
▁kaynaklı	-5936
▁ba	-5937
▁bitki	-5938
▁refah	-5939
.30	-5940
▁yakıt	-5941
▁metro	-5942
▁belirli	-5943
▁sö	-5944
▁günler	-5945
▁ven	-5946
▁akademisyen	-5947
▁planlanan	-5948
▁kus	-5949
▁nez	-5950
▁kardeşi	-5951
▁sonuçlar	-5952
mos	-5953
▁oğuz	-5954
▁arkadaşları	-5955
▁başladığını	-5956
▁ekiplerince	-5957
▁şampiyonlar	-5958
▁bünyesinde	-5959
▁bilm	-5960
▁zan	-5961
▁meşru	-5962
▁yaptıklarını	-5963
▁düğün	-5964
▁öğrencileri	-5965
▁müttefik	-5966
▁vurgulan	-5967
lamış	-5968
▁katı	-5969
diğimiz	-5970
▁konuya	-5971
▁bozuk	-5972
▁i̇nce	-5973
▁avcı	-5974
▁hayran	-5975
▁olmayı	-5976
▁eren	-5977
▁getirdiği	-5978
▁merkezine	-5979
▁inf	-5980
:3	-5981
▁olmas	-5982
▁sorunlar	-5983
dış	-5984
▁testi	-5985
ebileceğini	-5986
▁ondan	-5987
▁özkan	-5988
▁şimdiye	-5989
▁46	-5990
▁elazığ	-5991
▁cezasına	-5992
▁ünal	-5993
▁gümrük	-5994
▁kazı	-5995
▁kıymet	-5996
nn	-5997
▁sözü	-5998
▁bl	-5999
▁toprağa	-6000
▁birer	-6001
▁başlandı	-6002
era	-6003
▁ermenistan	-6004
▁kaybettiği	-6005
üse	-6006
▁tuğ	-6007
▁adliyeye	-6008
▁sorusuna	-6009
▁lan	-6010
▁vekili	-6011
▁görevlendir	-6012
larımızla	-6013
▁ikili	-6014
▁yapacağı	-6015
▁hacı	-6016
▁direk	-6017
▁sebebi	-6018
▁kağı	-6019
▁liralık	-6020
▁plastik	-6021
▁hükümetinin	-6022
ediği	-6023
rettin	-6024
//	-6025
▁faktör	-6026
▁yil	-6027
▁artıyor	-6028
▁mesela	-6029
▁edilerek	-6030
▁gezi	-6031
▁tepk	-6032
şten	-6033
▁2021'	-6034
▁seçimlerinde	-6035
▁gidecek	-6036
▁adamı	-6037
▁zincir	-6038
▁eşlik	-6039
tıcı	-6040
▁benzeri	-6041
▁ettim	-6042
▁seçimlerde	-6043
▁elektrikli	-6044
▁çalışmaların	-6045
▁6.	-6046
▁195	-6047
▁karşılıklı	-6048
amadı	-6049
otik	-6050
▁olmaması	-6051
▁ülkelerde	-6052
▁haklı	-6053
▁kaybol	-6054
▁lük	-6055
▁arın	-6056
▁yönündeki	-6057
▁değildi	-6058
▁birleştir	-6059
lamayı	-6060
tor	-6061
sıyla	-6062
▁köprü	-6063
▁zamanlarda	-6064
▁vadeli	-6065
▁kararının	-6066
arik	-6067
▁verdik	-6068
medim	-6069
zet	-6070
▁edeceğini	-6071
▁i̇letişim	-6072
▁olabileceğini	-6073
▁enfeksiyon	-6074
▁varan	-6075
▁getiriyor	-6076
ıldığında	-6077
▁kadros	-6078
emizde	-6079
▁görünüyor	-6080
atistik	-6081
ura	-6082
layın	-6083
▁ihbar	-6084
▁polisi	-6085
▁birbirine	-6086
▁alp	-6087
-19)	-6088
▁detaylar	-6089
▁lise	-6090
▁karşıtı	-6091
ulus	-6092
ledik	-6093
▁tazminat	-6094
▁sorularını	-6095
▁olurken	-6096
▁ortadoğu	-6097
▁hareketi	-6098
▁parlament	-6099
▁hastalıkları	-6100
▁ülkeden	-6101
▁bulunduk	-6102
▁okulu	-6103
▁yatak	-6104
▁disip	-6105
▁yönel	-6106
▁yerlerde	-6107
rama	-6108
ww	-6109
ex	-6110
▁intihar	-6111
▁mavi	-6112
▁nam	-6113
▁ayn	-6114
▁yolsuzluk	-6115
▁konuyu	-6116
▁baskın	-6117
dere	-6118
▁firma	-6119
mo	-6120
▁zeyn	-6121
▁avustr	-6122
cumhur	-6123
▁somut	-6124
▁başkanları	-6125
▁sessiz	-6126
▁meden	-6127
▁iddiaları	-6128
▁mardin	-6129
memek	-6130
▁ziraat	-6131
▁geçiyor	-6132
▁esen	-6133
▁hanım	-6134
ılabilir	-6135
▁temsilcileri	-6136
▁etmektedir	-6137
▁valiliği	-6138
▁tedarik	-6139
malarda	-6140
▁müf	-6141
▁vel	-6142
▁basit	-6143
▁ürünler	-6144
▁evlilik	-6145
▁tanış	-6146
▁çıkarıldı	-6147
▁başlaya	-6148
▁43	-6149
▁karşın	-6150
▁gölü	-6151
▁olmaktan	-6152
▁toh	-6153
▁çaba	-6154
isinden	-6155
▁ep	-6156
▁savcılık	-6157
▁konularda	-6158
▁yönde	-6159
▁ettiler	-6160
▁aley	-6161
▁ilişkileri	-6162
▁taciz	-6163
▁daki̇	-6164
▁özür	-6165
▁izlen	-6166
▁kenti	-6167
▁mekaniz	-6168
▁şif	-6169
ağının	-6170
▁çakır	-6171
▁polise	-6172
inize	-6173
bas	-6174
▁savundu	-6175
▁diyanet	-6176
▁engin	-6177
bileceğini	-6178
utu	-6179
▁ila	-6180
▁atak	-6181
▁binanın	-6182
▁denk	-6183
ruklu	-6184
i̇ha	-6185
▁dedik	-6186
▁i̇ttifakı	-6187
▁liman	-6188
▁selam	-6189
ris	-6190
▁ayşe	-6191
▁kimyasal	-6192
▁hücr	-6193
▁getirerek	-6194
cilerin	-6195
▁insanlara	-6196
▁politikası	-6197
jen	-6198
▁kurs	-6199
ganda	-6200
▁etkisiz	-6201
▁söylen	-6202
▁bilet	-6203
▁günleri	-6204
satı	-6205
▁aran	-6206
▁250	-6207
▁geçiren	-6208
▁köken	-6209
22	-6210
▁üstü	-6211
▁enstitüsü	-6212
alay	-6213
işan	-6214
▁körfez	-6215
▁47	-6216
▁angel	-6217
▁kahramanmaraş	-6218
▁hayati	-6219
mamak	-6220
▁sip	-6221
▁bulunması	-6222
▁geçmişte	-6223
▁eşy	-6224
-6	-6225
ladi	-6226
▁sürecinin	-6227
▁tuttu	-6228
▁bakımından	-6229
▁600	-6230
▁mutabak	-6231
edek	-6232
▁gençlerin	-6233
ülük	-6234
▁konuşmasında	-6235
iyim	-6236
▁ailesinin	-6237
birliği	-6238
▁bilgilere	-6239
▁oturan	-6240
▁öğrencilere	-6241
▁sigort	-6242
▁potansiyel	-6243
▁kaymakamı	-6244
▁vurdu	-6245
▁tün	-6246
gr	-6247
▁etkisiyle	-6248
eral	-6249
▁vatandaşlara	-6250
▁şimşek	-6251
▁gecik	-6252
vert	-6253
▁i̇hlas	-6254
▁vatandaşı	-6255
▁davada	-6256
▁i̇kti	-6257
▁evren	-6258
gk	-6259
▁sıcaklık	-6260
▁terim	-6261
we	-6262
▁bomba	-6263
terör	-6264
▁oktay	-6265
▁1,5	-6266
▁nöbet	-6267
▁demişti	-6268
▁riski	-6269
▁çarptır	-6270
▁önlemleri	-6271
▁serma	-6272
▁sektörü	-6273
▁kalacak	-6274
▁kurş	-6275
▁i̇ha	-6276
▁oynadığı	-6277
▁rezerv	-6278
-5	-6279
▁taşım	-6280
hine	-6281
▁alırken	-6282
▁bahar	-6283
▁senin	-6284
▁oyuncular	-6285
▁takdirde	-6286
lerim	-6287
iha	-6288
▁gündüz	-6289
▁nitelendir	-6290
uldak	-6291
▁şehircilik	-6292
▁farkınd	-6293
▁icra	-6294
▁apple	-6295
▁tutul	-6296
▁kararlı	-6297
▁kast	-6298
▁büyüy	-6299
▁bi	-6300
▁i̇sviç	-6301
▁sanığın	-6302
▁seçildi	-6303
▁81	-6304
hk	-6305
▁edi̇	-6306
▁kilit	-6307
▁trak	-6308
uyucu	-6309
emizin	-6310
▁adlandır	-6311
▁ergen	-6312
▁trt	-6313
▁teklifi	-6314
▁hil	-6315
pa	-6316
abey	-6317
▁sektöründe	-6318
▁dökümü	-6319
▁2009	-6320
▁erol	-6321
▁sof	-6322
▁atılan	-6323
▁mesle	-6324
▁tipi	-6325
▁ceph	-6326
▁i̇şlet	-6327
sey	-6328
▁ayakta	-6329
▁muam	-6330
▁ört	-6331
medik	-6332
▁09	-6333
▁siyasal	-6334
▁mülteci	-6335
▁dediği	-6336
▁görevden	-6337
göz	-6338
▁kentin	-6339
▁ikna	-6340
▁eşliğinde	-6341
▁açılması	-6342
▁gecesi	-6343
▁online	-6344
▁2008	-6345
mil	-6346
▁ordus	-6347
▁kurucu	-6348
asındaki	-6349
▁afad	-6350
▁öy	-6351
▁id	-6352
▁bilgisi	-6353
gs	-6354
larınız	-6355
▁fiziksel	-6356
▁vekil	-6357
vat	-6358
▁şampiyonluk	-6359
▁olaylar	-6360
ogle	-6361
▁oranda	-6362
▁demirören	-6363
▁beslenme	-6364
▁okula	-6365
▁daki̇ka	-6366
kon	-6367
ulduğunu	-6368
▁bence	-6369
▁kılın	-6370
▁deaş	-6371
▁dezen	-6372
yaman	-6373
▁psikolojik	-6374
▁fas	-6375
▁hayatta	-6376
▁başlangıç	-6377
tre	-6378
▁partisinin	-6379
▁kurtuluş	-6380
▁göm	-6381
bileceği	-6382
▁dizisi	-6383
▁zamanı	-6384
▁açıkça	-6385
▁tasarı	-6386
▁çalışanları	-6387
adaki	-6388
▁bors	-6389
▁radyo	-6390
▁vizyon	-6391
anak	-6392
▁pom	-6393
ebileceği	-6394
▁tit	-6395
▁dikkatli	-6396
▁bağışık	-6397
▁çalışmalarının	-6398
▁kıyas	-6399
▁hedefi	-6400
▁por	-6401
.2	-6402
▁hakkını	-6403
▁sigorta	-6404
▁zirvesi	-6405
▁edinilen	-6406
▁dayalı	-6407
▁seviye	-6408
▁geçirdiği	-6409
▁(4	-6410
civert	-6411
▁ısrar	-6412
▁söylemek	-6413
ation	-6414
▁okunan	-6415
▁etik	-6416
▁aram	-6417
▁geb	-6418
▁kayser	-6419
ladıklarını	-6420
▁lay	-6421
▁hâlâ	-6422
▁yücel	-6423
▁oturum	-6424
▁çağrısında	-6425
▁keyif	-6426
▁talima	-6427
▁faruk	-6428
▁41	-6429
▁işle	-6430
▁kavga	-6431
▁belgesi	-6432
pınar	-6433
ılmaya	-6434
ysa	-6435
▁bini	-6436
▁faydalan	-6437
▁birini	-6438
▁ifadesi	-6439
dikal	-6440
▁süreli	-6441
▁adnan	-6442
▁taksi	-6443
▁yenilik	-6444
▁sisteminin	-6445
▁çapında	-6446
▁çıkıp	-6447
▁cemal	-6448
▁belçika	-6449
▁müst	-6450
▁verim	-6451
.”.	-6452
▁ran	-6453
▁real	-6454
▁roma	-6455
▁evden	-6456
▁istif	-6457
▁kanat	-6458
amayan	-6459
▁köylü	-6460
▁bunlara	-6461
▁noktası	-6462
ebek	-6463
iyonu	-6464
.20	-6465
▁önlemler	-6466
▁farkı	-6467
▁dönen	-6468
▁yüküm	-6469
▁serdar	-6470
▁müzesi	-6471
▁ailenin	-6472
▁dey	-6473
▁uygulamaya	-6474
▁bölgelerde	-6475
▁tarihli	-6476
▁meteor	-6477
▁aylarında	-6478
ılmıştır	-6479
▁sürecin	-6480
▁görevlisi	-6481
:0	-6482
▁cenazesi	-6483
alığı	-6484
▁payı	-6485
▁katılımıyla	-6486
▁kurumsal	-6487
▁açıklanan	-6488
▁ödey	-6489
▁yiyecek	-6490
▁mahkemeye	-6491
▁veli	-6492
▁sürücüsü	-6493
▁korkut	-6494
▁pal	-6495
▁itiraf	-6496
▁i̇dlib	-6497
▁bölün	-6498
▁dörd	-6499
▁farkında	-6500
▁başkanvekili	-6501
ört	-6502
▁beraat	-6503
üme	-6504
▁filmin	-6505
▁ceb	-6506
▁meyve	-6507
▁iyileştir	-6508
▁iken	-6509
▁kaçan	-6510
▁bula	-6511
▁sandal	-6512
▁sürdüren	-6513
gam	-6514
afak	-6515
▁bine	-6516
▁ilde	-6517
▁kabil	-6518
▁yürürlüğe	-6519
ilmez	-6520
▁gazeteciler	-6521
▁şeyin	-6522
▁havuz	-6523
ğrul	-6524
▁gönderdi	-6525
led	-6526
▁uzaklaştır	-6527
▁vatandaşın	-6528
▁slogan	-6529
▁göğ	-6530
▁kod	-6531
ılacağı	-6532
▁ajans	-6533
elikle	-6534
:5	-6535
▁kaynağından	-6536
▁afyon	-6537
▁albayrak	-6538
▁54	-6539
▁başlıklı	-6540
▁tahr	-6541
▁öf	-6542
▁eğitime	-6543
avüz	-6544
▁fatma	-6545
▁şehrin	-6546
▁çadır	-6547
▁oluşturuyor	-6548
▁49	-6549
▁taliban	-6550
▁doğalgaz	-6551
▁dinam	-6552
▁binden	-6553
▁i̇çi̇n	-6554
▁bahset	-6555
top	-6556
▁google	-6557
▁oysa	-6558
üksel	-6559
ahattin	-6560
lılar	-6561
▁istediklerini	-6562
▁diyalog	-6563
▁seçenek	-6564
▁yakalanan	-6565
▁uzaktan	-6566
▁müj	-6567
▁ant	-6568
▁03	-6569
▁sırt	-6570
▁işlemlerinin	-6571
▁bb	-6572
▁çıkmış	-6573
▁düşünce	-6574
▁gelişmiş	-6575
▁meselesi	-6576
▁kaldığını	-6577
▁kullanma	-6578
▁işık	-6579
▁ateşkes	-6580
▁donan	-6581
▁üzün	-6582
▁ersoy	-6583
▁cemaat	-6584
▁kampanyası	-6585
▁konusundaki	-6586
tük	-6587
▁ısın	-6588
▁öldürül	-6589
▁çekilen	-6590
▁besin	-6591
▁duygus	-6592
▁eklenmiştir	-6593
▁haksız	-6594
▁sanatç	-6595
▁paşa	-6596
▁koordinasyon	-6597
culuk	-6598
▁istasyon	-6599
tel	-6600
dılar	-6601
▁kanada	-6602
▁özcan	-6603
▁tavsiye	-6604
▁denize	-6605
▁artışı	-6606
▁açıklamaları	-6607
▁nor	-6608
▁aktör	-6609
▁avustur	-6610
▁tey	-6611
▁çiğ	-6612
teri	-6613
▁imam	-6614
▁yitirdi	-6615
▁gittiği	-6616
ulmuş	-6617
▁kartal	-6618
les	-6619
▁selim	-6620
▁112	-6621
irdağ	-6622
▁istismar	-6623
▁otomobilin	-6624
▁seyr	-6625
ısındaki	-6626
▁olmasının	-6627
▁evli	-6628
ulacak	-6629
▁—	-6630
▁sevgi	-6631
▁kolaylaştır	-6632
▁zong	-6633
▁ligde	-6634
▁dünyadaki	-6635
▁yükselen	-6636
▁özelliği	-6637
kovid	-6638
▁tff	-6639
sür	-6640
▁teşh	-6641
▁teşkilatı	-6642
▁erkan	-6643
▁kampanya	-6644
▁layık	-6645
▁harcam	-6646
▁araçlar	-6647
▁avustralya	-6648
▁ortasında	-6649
imizle	-6650
▁gözden	-6651
▁buluştu	-6652
▁propa	-6653
▁törende	-6654
▁i̇nan	-6655
dışı	-6656
mı	-6657
▁zonguldak	-6658
▁gözaltı	-6659
▁açıklamıştı	-6660
▁kuruluşu	-6661
▁üyelerinin	-6662
▁ertel	-6663
▁ayhan	-6664
▁kemer	-6665
▁ruhsat	-6666
▁hizmete	-6667
▁sabit	-6668
ts	-6669
tının	-6670
▁güreş	-6671
▁değiştirilmeden	-6672
raz	-6673
▁52	-6674
▁ettiğimiz	-6675
▁kalıyor	-6676
▁uyruklu	-6677
▁ülkesi	-6678
▁ülkelere	-6679
▁bulgar	-6680
▁alındığını	-6681
ilebilir	-6682
ğunun	-6683
▁koltu	-6684
ileriyle	-6685
abiliriz	-6686
▁”	-6687
▁endüstr	-6688
▁işletmeler	-6689
▁feth	-6690
▁(@	-6691
▁hepimiz	-6692
▁partili	-6693
▁sağladı	-6694
▁abdul	-6695
▁çekmek	-6696
paz	-6697
▁gas	-6698
malıyız	-6699
▁yaşamak	-6700
▁ucuz	-6701
▁izledi	-6702
▁koz	-6703
li̇k	-6704
▁yazdığı	-6705
▁turgut	-6706
▁katlı	-6707
vil	-6708
▁memuru	-6709
▁sergi	-6710
▁tanesi	-6711
▁girdiği	-6712
dıran	-6713
▁karıştır	-6714
▁mücadelesi	-6715
ısal	-6716
▁bakanlar	-6717
▁artışla	-6718
▁dördüncü	-6719
▁sh	-6720
▁dönemine	-6721
aca	-6722
▁liradan	-6723
▁tecavüz	-6724
▁çekildi	-6725
▁ney	-6726
▁tap	-6727
ediyor	-6728
▁beraberinde	-6729
▁üretilen	-6730
luğa	-6731
▁vuruş	-6732
▁sürük	-6733
▁dans	-6734
▁yazıcı	-6735
▁esad	-6736
und	-6737
▁radikal	-6738
▁memnuniyet	-6739
▁altay	-6740
rü	-6741
▁faaliyetleri	-6742
▁kedi	-6743
▁elinden	-6744
▁20'	-6745
▁sermaye	-6746
▁başkanlı	-6747
▁mesut	-6748
▁hattı	-6749
▁ulaşan	-6750
▁cas	-6751
zar	-6752
ırsa	-6753
▁muharrem	-6754
▁ilçesindeki	-6755
▁pam	-6756
▁piyasa	-6757
▁kep	-6758
aşı	-6759
▁düzelt	-6760
▁i̇hbar	-6761
usunu	-6762
unlar	-6763
▁adres	-6764
▁edilmişti	-6765
▁tamamlandı	-6766
no	-6767
▁binası	-6768
▁oynayan	-6769
▁56	-6770
ağında	-6771
▁diplomatik	-6772
fe	-6773
emiyor	-6774
▁işsiz	-6775
▁cnn	-6776
▁tol	-6777
▁harekatı	-6778
▁lez	-6779
▁olanak	-6780
▁tc	-6781
▁194	-6782
ses	-6783
iya	-6784
▁gördüm	-6785
▁buğ	-6786
▁hali	-6787
▁polonya	-6788
ıntılı	-6789
▁üstüne	-6790
örü	-6791
▁,	-6792
ediğini	-6793
▁dünyayı	-6794
▁izleyi	-6795
▁sayısını	-6796
sında	-6797
▁portek	-6798
▁mert	-6799
vin	-6800
lüğünü	-6801
▁ilav	-6802
://	-6803
▁kütüp	-6804
▁kuran	-6805
▁bon	-6806
▁oyunları	-6807
▁onlarca	-6808
▁yönelt	-6809
▁uyku	-6810
▁savunan	-6811
alel	-6812
▁gl	-6813
asız	-6814
▁işsizlik	-6815
▁tarihinin	-6816
mızılı	-6817
▁şüphelilerin	-6818
▁zemin	-6819
▁gündür	-6820
▁çalışmalara	-6821
▁bekir	-6822
▁incelen	-6823
-19'	-6824
inal	-6825
▁yağışı	-6826
▁pey	-6827
▁53	-6828
▁sir	-6829
▁olayları	-6830
▁kontrolü	-6831
▁portekiz	-6832
▁haklarını	-6833
masi	-6834
ınızı	-6835
▁söylediği	-6836
▁herkesi	-6837
▁tıb	-6838
▁bakır	-6839
▁dükkan	-6840
▁yansıdı	-6841
▁macron	-6842
▁sezonu	-6843
operatif	-6844
▁mikro	-6845
▁sana	-6846
▁i̇sviçre	-6847
lıyoruz	-6848
▁havaliman	-6849
▁kişiden	-6850
▁şubesi	-6851
▁verimli	-6852
▁tavır	-6853
▁şartları	-6854
.000	-6855
sis	-6856
tic	-6857
▁sordu	-6858
▁babam	-6859
tekin	-6860
▁sürecek	-6861
▁oradan	-6862
▁duran	-6863
▁kağıt	-6864
▁i̇stiklal	-6865
ette	-6866
şak	-6867
▁sevin	-6868
▁kaleci	-6869
▁zeynep	-6870
▁giyen	-6871
▁11'	-6872
▁etmeyi	-6873
▁ayrılan	-6874
▁he	-6875
▁kadını	-6876
üyük	-6877
▁önemlidir	-6878
▁ederim	-6879
▁çarptı	-6880
▁girecek	-6881
▁gelişmeleri	-6882
▁etkisini	-6883
ğunda	-6884
▁dalı	-6885
▁sitesi	-6886
nav	-6887
alarak	-6888
▁araştırmalar	-6889
mekten	-6890
▁araçları	-6891
▁görüntülen	-6892
▁mevzu	-6893
▁çalıştığını	-6894
▁seçilen	-6895
▁almıştı	-6896
▁tedbirler	-6897
▁hek	-6898
▁bilen	-6899
▁görüntüleri	-6900
▁programında	-6901
▁yürüten	-6902
▁kararlar	-6903
bi̇	-6904
▁i̇stih	-6905
▁arzu	-6906
▁senaryo	-6907
ıd	-6908
▁kaynakları	-6909
▁deplasmanda	-6910
bağ	-6911
alarca	-6912
▁güçlerinin	-6913
▁kullanmak	-6914
▁yaşay	-6915
▁kullanıldı	-6916
pat	-6917
▁çıkarılan	-6918
diniz	-6919
▁kooperatif	-6920
▁aksine	-6921
▁kimin	-6922
mik	-6923
leki	-6924
▁şır	-6925
▁ışı	-6926
▁sün	-6927
▁tabl	-6928
▁alanına	-6929
▁şa	-6930
▁çizg	-6931
amış	-6932
▁konular	-6933
▁play	-6934
isindeki	-6935
▁120	-6936
▁oluşturduğu	-6937
▁kaygı	-6938
▁rakib	-6939
12	-6940
▁topar	-6941
▁kalem	-6942
ansiyon	-6943
▁bağlam	-6944
▁tüketici	-6945
▁çevresinde	-6946
▁kırk	-6947
▁damar	-6948
▁kamuoyu	-6949
▁düşünüyoruz	-6950
▁başrol	-6951
▁durumunun	-6952
▁işken	-6953
▁cesaret	-6954
▁kurucusu	-6955
▁katil	-6956
▁brüksel	-6957
▁dağıtım	-6958
eyim	-6959
▁yolculuk	-6960
siyonu	-6961
▁geliştirme	-6962
▁kerim	-6963
▁gazetecilerin	-6964
abi	-6965
▁ziyareti	-6966
lıkları	-6967
▁6'	-6968
▁satışı	-6969
▁kaydı	-6970
▁katkıda	-6971
▁ypg	-6972
▁kendileri	-6973
ülecek	-6974
▁prim	-6975
▁02	-6976
▁olamaz	-6977
▁sürecini	-6978
▁kred	-6979
▁demektir	-6980
▁pet	-6981
▁ömür	-6982
▁tıbbi	-6983
▁sudan	-6984
▁noktaya	-6985
▁hazırladığı	-6986
▁2015'	-6987
▁belirledi	-6988
▁komitesi	-6989
▁cezaevi	-6990
ıya	-6991
▁57	-6992
▁vermişti	-6993
ell	-6994
lığıyla	-6995
▁üstünde	-6996
▁seri	-6997
▁yöneticisi	-6998
▁çoğunluk	-6999
▁gam	-7000
▁tü	-7001
▁şam	-7002
▁anlama	-7003
▁şüphelinin	-7004
▁kafa	-7005
▁inanç	-7006
▁gözler	-7007
▁propaganda	-7008
▁hij	-7009
▁sağanak	-7010
ier	-7011
ebilirsiniz	-7012
▁valilik	-7013
▁dışındaki	-7014
lüt	-7015
bizim	-7016
▁geriye	-7017
▁kurduğu	-7018
▁rize	-7019
▁sığınmacı	-7020
▁başlattığı	-7021
▁tekirdağ	-7022
umuzu	-7023
▁karşılığında	-7024
▁aldıkları	-7025
▁hamas	-7026
▁yapmayı	-7027
yenin	-7028
▁kitl	-7029
tıktan	-7030
▁sunduğu	-7031
▁hayatın	-7032
gusu	-7033
▁nil	-7034
▁namazı	-7035
▁anlaşmaya	-7036
▁ifadelerine	-7037
▁ente	-7038
▁yarısı	-7039
ebilmek	-7040
▁yemen	-7041
▁geldiğinde	-7042
▁gazetecilere	-7043
▁duruşmada	-7044
unç	-7045
▁suna	-7046
çılar	-7047
▁burası	-7048
▁moda	-7049
▁i̇daresi	-7050
▁öv	-7051
▁arı	-7052
▁özlem	-7053
▁algı	-7054
▁lin	-7055
res	-7056
umuzun	-7057
▁vurgulayarak	-7058
▁ulaştırma	-7059
▁tsk	-7060
▁disiplin	-7061
▁sanki	-7062
▁geçtik	-7063
tl	-7064
▁dezenf	-7065
▁söylemişti	-7066
uters	-7067
ub	-7068
▁etkilenen	-7069
▁arasına	-7070
▁kararına	-7071
faf	-7072
ayeti	-7073
eyt	-7074
▁denizi	-7075
kad	-7076
▁uzaklaş	-7077
▁şirketlerin	-7078
▁sokakta	-7079
▁50'	-7080
▁evlat	-7081
▁efsan	-7082
▁taahh	-7083
▁söyleye	-7084
▁oldum	-7085
bis	-7086
▁bankacılık	-7087
▁seviyesinde	-7088
▁kuruş	-7089
▁vatandaşları	-7090
▁okum	-7091
▁savaşın	-7092
▁kaldırılması	-7093
landi	-7094
▁marmar	-7095
▁tohum	-7096
lemesi	-7097
özel	-7098
▁yönetimindeki	-7099
esince	-7100
▁eşinin	-7101
▁milletimizin	-7102
ladıkları	-7103
▁oluşturan	-7104
▁yuvar	-7105
▁dua	-7106
▁araçların	-7107
anyahu	-7108
▁bez	-7109
▁manevi	-7110
▁günümüzde	-7111
▁7.	-7112
ecik	-7113
-7	-7114
▁km	-7115
▁ayının	-7116
▁sahasında	-7117
▁tetik	-7118
▁zamanlı	-7119
mb	-7120
▁çeyre	-7121
▁jür	-7122
▁albüm	-7123
çin	-7124
▁oraya	-7125
▁çıkarı	-7126
▁okuma	-7127
▁cinsiyet	-7128
ht	-7129
ji	-7130
▁tev	-7131
sızın	-7132
▁modeli	-7133
▁otoy	-7134
,(	-7135
▁örgütünün	-7136
▁görünce	-7137
▁fırsatı	-7138
▁kalmış	-7139
▁i̇spanyol	-7140
▁lüks	-7141
▁özgürlüğü	-7142
▁mesleki	-7143
mi̇r	-7144
▁başardı	-7145
▁tarımsal	-7146
▁skan	-7147
▁ürünlerin	-7148
▁ani	-7149
▁polat	-7150
çilerin	-7151
▁labor	-7152
emeyecek	-7153
▁programda	-7154
▁eman	-7155
▁frag	-7156
▁ikin	-7157
▁husus	-7158
▁hırsızlık	-7159
▁çatışma	-7160
ebi	-7161
▁birbirinden	-7162
▁seven	-7163
▁ste	-7164
▁paylaştığı	-7165
lamaları	-7166
▁değerlendirdi	-7167
mec	-7168
▁bitti	-7169
irt	-7170
▁kurşun	-7171
▁yapıp	-7172
▁hikâ	-7173
▁çalışmak	-7174
istler	-7175
▁sayg	-7176
▁görme	-7177
▁gidiş	-7178
▁ayına	-7179
▁sorumlusu	-7180
ularak	-7181
▁kos	-7182
▁levent	-7183
▁yanıtladı	-7184
80	-7185
▁muay	-7186
▁üstelik	-7187
▁vermey	-7188
▁macar	-7189
▁anma	-7190
▁kişilere	-7191
dıköy	-7192
▁teşeb	-7193
▁veda	-7194
▁xx	-7195
▁aldığımız	-7196
▁masa	-7197
ganı	-7198
▁tarihe	-7199
▁köyünde	-7200
▁hükm	-7201
▁kızılay	-7202
▁gerekse	-7203
mon	-7204
▁08	-7205
▁tamamı	-7206
▁alkış	-7207
lamanın	-7208
▁saldırıya	-7209
mes	-7210
▁64	-7211
▁bulunmak	-7212
▁oyunun	-7213
▁hayatına	-7214
rus	-7215
▁hoca	-7216
▁rehber	-7217
▁ertu	-7218
▁babasının	-7219
ida	-7220
▁tırman	-7221
▁gözet	-7222
▁haftalık	-7223
tadır	-7224
▁yaptım	-7225
▁kere	-7226
▁veriliyor	-7227
▁başkanımız	-7228
▁programına	-7229
vel	-7230
lerdi	-7231
seniz	-7232
▁becer	-7233
▁yazılım	-7234
▁mülk	-7235
▁ayakk	-7236
▁laborat	-7237
▁con	-7238
iyordu	-7239
▁sunan	-7240
viv	-7241
▁çizen	-7242
▁otomotiv	-7243
▁ihtimali	-7244
▁editör	-7245
▁bolu	-7246
acan	-7247
▁karayol	-7248
▁netanyahu	-7249
hisar	-7250
▁uygulamalar	-7251
▁krip	-7252
▁ülkemize	-7253
▁müşteri	-7254
▁komp	-7255
▁seçime	-7256
▁akk	-7257
▁olas	-7258
▁şikayetçi	-7259
▁bos	-7260
fed	-7261
▁değilim	-7262
▁si̇	-7263
ekte	-7264
▁vil	-7265
▁solun	-7266
▁atöly	-7267
▁iftar	-7268
▁fın	-7269
▁önemine	-7270
▁kenar	-7271
▁duyduğu	-7272
▁miting	-7273
▁karma	-7274
▁köprüsü	-7275
▁plana	-7276
▁hiss	-7277
▁suçu	-7278
▁projeleri	-7279
▁karanlık	-7280
▁kaliteli	-7281
▁caz	-7282
▁kararnam	-7283
▁çiftçi	-7284
dön	-7285
bakan	-7286
▁görsel	-7287
▁dilekç	-7288
alarıyla	-7289
▁redded	-7290
▁rab	-7291
▁şeffaf	-7292
▁şırnak	-7293
▁altun	-7294
▁esnasında	-7295
▁kentsel	-7296
▁edilemez	-7297
▁i̇pek	-7298
ach	-7299
karah	-7300
▁klas	-7301
ki̇ye	-7302
▁oynanacak	-7303
▁raf	-7304
▁penaltı	-7305
▁193	-7306
▁100'	-7307
▁kemik	-7308
lığında	-7309
▁tarihine	-7310
eet	-7311
▁azından	-7312
▁adaylar	-7313
▁bran	-7314
çileri	-7315
▁66	-7316
▁maça	-7317
▁popüler	-7318
▁yetenek	-7319
▁avusturya	-7320
▁suretiyle	-7321
▁plaj	-7322
▁kimliği	-7323
▁rıza	-7324
▁yolun	-7325
▁gönderilen	-7326
▁nar	-7327
ağını	-7328
▁baktığımız	-7329
▁görevlileri	-7330
▁kararları	-7331
▁ex	-7332
olos	-7333
şen	-7334
▁adası	-7335
▁hakkari	-7336
▁kanaat	-7337
▁miktarda	-7338
▁personeli	-7339
▁sınırları	-7340
▁finansman	-7341
▁zamanlar	-7342
imini	-7343
▁kamuoyuna	-7344
▁sekiz	-7345
▁edilir	-7346
ğüm	-7347
▁gelecekte	-7348
ds	-7349
▁bağlantılı	-7350
▁kurak	-7351
▁kalması	-7352
▁sars	-7353
▁desteğiyle	-7354
▁kk	-7355
▁bölümde	-7356
▁burs	-7357
▁toz	-7358
▁açıklayan	-7359
▁fotoğrafı	-7360
▁seni	-7361
▁haberde	-7362
▁artması	-7363
▁federasyon	-7364
ünüz	-7365
▁oyuncuları	-7366
elli	-7367
▁ilçede	-7368
▁neticesinde	-7369
kap	-7370
▁insanlık	-7371
▁parlamentosu	-7372
▁egz	-7373
▁grubun	-7374
ildik	-7375
▁kapısı	-7376
▁keç	-7377
ico	-7378
▁madalya	-7379
▁mol	-7380
▁miras	-7381
oks	-7382
▁yuv	-7383
▁kaynaklar	-7384
▁hesabı	-7385
▁paylaşımda	-7386
▁büyüt	-7387
▁belirsiz	-7388
▁mi̇t	-7389
▁kuruluşları	-7390
veren	-7391
▁yaşanıyor	-7392
▁atlet	-7393
▁zorla	-7394
▁yeten	-7395
▁geçtiği	-7396
▁renkli	-7397
▁etap	-7398
▁saldırının	-7399
▁olabileceği	-7400
▁karaman	-7401
celona	-7402
▁ki̇m	-7403
▁stadı	-7404
▁blok	-7405
▁geçmek	-7406
▁ertuğrul	-7407
lası	-7408
▁veriler	-7409
▁ithalat	-7410
▁toplantıya	-7411
▁evlen	-7412
▁aydır	-7413
▁feda	-7414
▁ailesine	-7415
▁yürek	-7416
▁sertif	-7417
▁işten	-7418
üsünün	-7419
dığından	-7420
----------------	-7421
▁67	-7422
▁keskin	-7423
▁komutan	-7424
▁ödülleri	-7425
▁hijyen	-7426
orit	-7427
▁güzellik	-7428
▁uzlaş	-7429
▁adliye	-7430
saydı	-7431
▁isyan	-7432
▁kuvvetli	-7433
▁belde	-7434
▁şeref	-7435
▁antal	-7436
▁tarihte	-7437
▁tehlike	-7438
▁bakın	-7439
▁kurmak	-7440
▁ilerleyen	-7441
▁dondur	-7442
▁asay	-7443
▁içinden	-7444
▁sinyal	-7445
▁kartı	-7446
▁yavru	-7447
obal	-7448
▁katılacak	-7449
▁veriyoruz	-7450
dun	-7451
▁i̇lişk	-7452
▁hazırlanıyor	-7453
▁aşısı	-7454
▁sergilen	-7455
▁atmos	-7456
▁geleceğini	-7457
▁cel	-7458
▁set	-7459
▁sök	-7460
▁olmanın	-7461
▁emisyon	-7462
▁soruları	-7463
▁800	-7464
▁sıv	-7465
▁açıklamasını	-7466
▁kadıköy	-7467
▁pınar	-7468
▁edilmiştir	-7469
▁geçer	-7470
▁metrekar	-7471
esun	-7472
evet	-7473
▁törenine	-7474
kö	-7475
▁depremin	-7476
▁sesi	-7477
▁grev	-7478
▁emine	-7479
▁tank	-7480
▁fahrettin	-7481
ang	-7482
▁turk	-7483
▁sözde	-7484
▁ediyorlar	-7485
▁duruşma	-7486
▁gerektiğine	-7487
▁volkan	-7488
▁ayar	-7489
▁2014'	-7490
▁85	-7491
▁pamuk	-7492
▁rok	-7493
▁çektir	-7494
▁nefret	-7495
▁ülkelerden	-7496
▁sipar	-7497
▁şehri	-7498
denin	-7499
▁başlar	-7500
▁görüşmede	-7501
▁heykel	-7502
▁binali	-7503
luğunu	-7504
▁işlemi	-7505
▁sarayı	-7506
melerde	-7507
▁adıyaman	-7508
gb	-7509
ebbet	-7510
▁sabır	-7511
▁şirketler	-7512
▁çil	-7513
▁ihbarı	-7514
▁ayrıntı	-7515
ılacağını	-7516
luğun	-7517
▁özgü	-7518
▁muhafazak	-7519
▁oranının	-7520
▁sorusu	-7521
▁aldıklarını	-7522
▁kalb	-7523
▁telek	-7524
▁bulama	-7525
▁sahası	-7526
▁''	-7527
▁üstlen	-7528
▁hata	-7529
▁etmey	-7530
▁ekonomisi	-7531
▁belgesel	-7532
▁rü	-7533
lısı	-7534
▁partiler	-7535
amayacak	-7536
!”	-7537
▁ilave	-7538
▁etkileri	-7539
▁cezaevine	-7540
▁yüze	-7541
▁bizden	-7542
▁isabet	-7543
hayır	-7544
▁gücünü	-7545
▁izleyen	-7546
▁sorunların	-7547
!..	-7548
▁askerlik	-7549
▁hızlandır	-7550
▁alper	-7551
▁siber	-7552
▁şampiyonu	-7553
▁virüsün	-7554
▁çatı	-7555
▁dür	-7556
▁i̇f	-7557
enn	-7558
▁700	-7559
ena	-7560
▁7'	-7561
▁müebbet	-7562
▁yerleri	-7563
▁duman	-7564
sym	-7565
▁yurttaş	-7566
▁mi̇l	-7567
▁tatb	-7568
▁sistemin	-7569
hone	-7570
▁doları	-7571
▁değerlendiren	-7572
▁parayı	-7573
▁bulunma	-7574
▁büro	-7575
▁çıkmak	-7576
▁geçirilen	-7577
▁bizzat	-7578
▁yapılır	-7579
▁sistemini	-7580
▁sahaya	-7581
▁tekin	-7582
▁dönüştü	-7583
▁olmaları	-7584
▁piyasaya	-7585
▁sektörünün	-7586
▁geleceğe	-7587
▁sezonun	-7588
iğit	-7589
▁sürdüğü	-7590
▁gidece	-7591
▁mül	-7592
▁kadınlara	-7593
diven	-7594
▁sonlandır	-7595
▁omuz	-7596
▁numaralı	-7597
▁i̇lhan	-7598
▁tavsiy	-7599
ick	-7600
23	-7601
▁dönemlerde	-7602
▁turiz	-7603
▁alanlar	-7604
▁medeniyet	-7605
▁önemi	-7606
▁akademik	-7607
vivor	-7608
▁atıyor	-7609
▁kilogram	-7610
▁sürülen	-7611
▁üreten	-7612
▁bül	-7613
▁yardımı	-7614
▁anlayışı	-7615
cıoğlu	-7616
▁doğur	-7617
▁us	-7618
▁kurulması	-7619
25	-7620
▁derecede	-7621
▁kriter	-7622
iste	-7623
▁açlık	-7624
▁emeği	-7625
rom	-7626
ğimizi	-7627
çü	-7628
▁örgütüne	-7629
▁müjde	-7630
▁bizde	-7631
▁konuşuyor	-7632
acaklarını	-7633
▁dediler	-7634
▁hur	-7635
▁51	-7636
▁yurtdış	-7637
▁afrin	-7638
▁dışından	-7639
▁kurumları	-7640
▁oğlum	-7641
▁58	-7642
▁barcelona	-7643
▁manav	-7644
▁sıkış	-7645
▁yaşıyoruz	-7646
▁işleri	-7647
▁kader	-7648
▁asayiş	-7649
▁görevine	-7650
▁gerçeği	-7651
▁çektiği	-7652
▁kullanıyor	-7653
imden	-7654
▁bürokr	-7655
▁ceo	-7656
▁i̇çin	-7657
▁okunanlar	-7658
.)	-7659
emize	-7660
▁city	-7661
lanarak	-7662
taç	-7663
▁ozan	-7664
sika	-7665
▁rahatsızlık	-7666
▁demiş	-7667
tec	-7668
▁dünyası	-7669
▁değiliz	-7670
ezya	-7671
▁i̇nter	-7672
▁hastalar	-7673
▁i̇hra	-7674
şeh	-7675
▁ayrılık	-7676
▁önlemek	-7677
▁başbakanlık	-7678
▁zul	-7679
lacivert	-7680
▁ürünü	-7681
▁oruç	-7682
ator	-7683
ınıza	-7684
▁izni	-7685
▁camii	-7686
▁uçağı	-7687
▁hırsız	-7688
▁çoğunluğu	-7689
ende	-7690
▁mücadelenin	-7691
▁ağız	-7692
▁çet	-7693
▁saldırısı	-7694
▁kullanılması	-7695
▁piyan	-7696
▁bulgaristan	-7697
ağına	-7698
▁imal	-7699
▁yaşadığını	-7700
rat	-7701
rin	-7702
▁cezaevinde	-7703
▁bölgeler	-7704
leriniz	-7705
▁diyorlar	-7706
▁gruplar	-7707
▁basına	-7708
▁kripto	-7709
▁geçerek	-7710
▁07	-7711
▁i̇ngilizce	-7712
▁63	-7713
▁laf	-7714
▁hain	-7715
▁aldım	-7716
jantin	-7717
▁fatur	-7718
▁verileri	-7719
ane	-7720
▁haftanın	-7721
▁etmedi	-7722
▁başarıyla	-7723
chester	-7724
▁mc	-7725
si̇n	-7726
▁minibüs	-7727
müştür	-7728
ktan	-7729
▁iv	-7730
▁seferber	-7731
▁olduğundan	-7732
▁kaçta	-7733
▁kurtarı	-7734
▁partilerin	-7735
▁nuri	-7736
diğim	-7737
amızda	-7738
idin	-7739
▁korkmaz	-7740
▁ilgilendir	-7741
▁kın	-7742
▁sorumlulu	-7743
▁erkekler	-7744
▁konuları	-7745
▁göstererek	-7746
▁olabilecek	-7747
aport	-7748
▁müte	-7749
acağına	-7750
▁hassasiyet	-7751
mesin	-7752
▁ufak	-7753
▁başarısız	-7754
▁geçtiğini	-7755
▁darp	-7756
▁nereye	-7757
▁ekiplerine	-7758
▁geor	-7759
arka	-7760
▁sınavı	-7761
▁isterim	-7762
akat	-7763
ni̇	-7764
▁fonu	-7765
bistan	-7766
▁başarılar	-7767
▁kurma	-7768
▁rey	-7769
▁akrab	-7770
çocuk	-7771
veç	-7772
▁kurdu	-7773
▁bulmak	-7774
▁çocuklarının	-7775
bahar	-7776
▁panel	-7777
▁coşkun	-7778
▁göstermek	-7779
▁zeki	-7780
▁gemi	-7781
▁yangını	-7782
▁mevlüt	-7783
▁ilişkilerin	-7784
▁kktc	-7785
▁sürecine	-7786
▁yaşadıklarını	-7787
abilmesi	-7788
▁beraberlik	-7789
▁sayede	-7790
▁anında	-7791
▁karat	-7792
▁tesisleri	-7793
▁meral	-7794
ovic	-7795
▁saatleri	-7796
▁ri	-7797
daha	-7798
▁bakanlığın	-7799
▁yumur	-7800
▁mutabakat	-7801
cılığın	-7802
▁eh	-7803
▁istendi	-7804
▁ülkelerinin	-7805
▁beslen	-7806
▁vergisi	-7807
▁kars	-7808
▁şüpheliler	-7809
▁anlamı	-7810
▁detaylı	-7811
▁zem	-7812
▁avukatları	-7813
▁sistemine	-7814
▁teker	-7815
▁utan	-7816
▁garanti	-7817
▁öc	-7818
▁restoran	-7819
atörü	-7820
▁aileler	-7821
▁kenan	-7822
▁verildiği	-7823
▁dom	-7824
▁kendimi	-7825
▁bağışıklık	-7826
▁duyurusunda	-7827
▁oluşturulan	-7828
▁evinin	-7829
▁2022'	-7830
▁59	-7831
azi	-7832
benim	-7833
▁yolunu	-7834
▁faydalı	-7835
▁qu	-7836
▁boşalt	-7837
▁bulgu	-7838
masyon	-7839
▁füze	-7840
önü	-7841
▁tarafında	-7842
▁tarafı	-7843
▁ortağı	-7844
kus	-7845
▁fos	-7846
▁çalın	-7847
▁değişen	-7848
▁dede	-7849
▁konunun	-7850
▁seçimler	-7851
asıt	-7852
▁diya	-7853
▁alex	-7854
▁şahit	-7855
▁gezeg	-7856
▁haftası	-7857
▁aradan	-7858
▁76	-7859
▁alanya	-7860
▁toto	-7861
▁olama	-7862
▁arjantin	-7863
kırmızılı	-7864
▁çözümü	-7865
▁ihmal	-7866
▁eğit	-7867
▁verdiğimiz	-7868
▁hastalığın	-7869
▁istek	-7870
▁zeka	-7871
▁bedeli	-7872
▁1-0	-7873
▁çalışırken	-7874
▁havacılık	-7875
▁survivor	-7876
▁üste	-7877
▁06	-7878
▁sarf	-7879
saray	-7880
▁verilere	-7881
▁çığ	-7882
▁törene	-7883
▁reuters	-7884
ima	-7885
büyük	-7886
▁yürüm	-7887
▁uf	-7888
▁tad	-7889
▁kazanç	-7890
sus	-7891
▁yıllarında	-7892
▁olanların	-7893
▁adem	-7894
▁i̇nşaat	-7895
▁sistemleri	-7896
▁cilt	-7897
emizi	-7898
▁tüz	-7899
▁bulunmuştu	-7900
▁gayrim	-7901
▁yürüttüğü	-7902
▁sever	-7903
▁tahran	-7904
uzu	-7905
▁astr	-7906
▁suyun	-7907
▁mensu	-7908
▁yoluna	-7909
▁hrist	-7910
rika	-7911
▁est	-7912
▁tos	-7913
▁bre	-7914
▁koltuk	-7915
▁durumlarda	-7916
▁meteoroloji	-7917
▁yiğit	-7918
▁atış	-7919
▁paralel	-7920
▁kuruldu	-7921
liğinden	-7922
▁suik	-7923
▁vladi	-7924
▁aktaş	-7925
▁hepimizin	-7926
kırım	-7927
▁zamanında	-7928
▁oluşuyor	-7929
▁afyonkarah	-7930
eğe	-7931
▁taksim	-7932
▁ölümüne	-7933
▁farklılık	-7934
lılığı	-7935
▁farkındalık	-7936
▁kıt	-7937
▁sanıklar	-7938
tiy	-7939
▁kalmadı	-7940
▁bilinmeyen	-7941
▁ifadeler	-7942
▁korona	-7943
▁olunca	-7944
▁kısım	-7945
ırda	-7946
▁malzeme	-7947
▁ösym	-7948
▁dönük	-7949
:1	-7950
▁biliyorum	-7951
▁solunum	-7952
calı	-7953
▁işyer	-7954
▁açik	-7955
acağımız	-7956
▁i̇ddianam	-7957
▁dili	-7958
▁selahattin	-7959
▁yedek	-7960
teşem	-7961
▁loj	-7962
▁muhtemel	-7963
▁akşamı	-7964
▁saldırıları	-7965
i̇ç	-7966
▁edeceği	-7967
▁klasik	-7968
▁paylaşan	-7969
meniz	-7970
▁emeklilik	-7971
▁pir	-7972
▁derhal	-7973
wn	-7974
▁öldürülen	-7975
dinde	-7976
▁vermedi	-7977
larsa	-7978
▁geliştirmek	-7979
▁kala	-7980
▁adıyla	-7981
▁yayınlandı	-7982
ci̇	-7983
abilen	-7984
▁youtu	-7985
▁memleket	-7986
▁koşulları	-7987
▁global	-7988
dınız	-7989
gücü	-7990
▁tesisi	-7991
▁30'	-7992
▁cevab	-7993
▁askıya	-7994
▁hukuka	-7995
▁şimdiden	-7996
▁diyoruz	-7997
▁sc	-7998
▁çıkarmak	-7999
▁ambulansla	-8000
ates	-8001
▁riskli	-8002
ilyon	-8003
▁biliniyor	-8004
i̇nsan	-8005
▁barajı	-8006
▁firmalar	-8007
▁yahudi	-8008
▁tunceli	-8009
▁masaya	-8010
▁arif	-8011
▁kaplan	-8012
pol	-8013
▁73	-8014
▁kli	-8015
▁reddet	-8016
▁yöneticileri	-8017
▁i̇nsanlar	-8018
masız	-8019
▁meksika	-8020
larımı	-8021
▁aydınlat	-8022
▁kaleme	-8023
tılar	-8024
▁geçecek	-8025
▁eylemi	-8026
▁yönetmeni	-8027
▁bi̇n	-8028
▁mesele	-8029
▁sebze	-8030
▁türü	-8031
▁i̇zmi̇r	-8032
▁hastaların	-8033
saspor	-8034
▁sektörün	-8035
▁68	-8036
▁tüfek	-8037
▁musunuz	-8038
▁parmak	-8039
▁teşebbüs	-8040
▁ücreti	-8041
▁büyükelçisi	-8042
▁atarak	-8043
▁johnson	-8044
▁artırmak	-8045
▁istenen	-8046
▁şak	-8047
▁derken	-8048
eğer	-8049
▁manchester	-8050
▁üyeliği	-8051
▁isimleri	-8052
▁uydu	-8053
ahya	-8054
▁aşamasında	-8055
▁dokuz	-8056
▁alıcı	-8057
▁düzenleyen	-8058
▁politikaları	-8059
▁gösterilen	-8060
▁işçiler	-8061
▁yaşadık	-8062
▁üretici	-8063
▁başkanlığında	-8064
▁gönderdiği	-8065
▁çağdaş	-8066
ttps	-8067
▁vladimir	-8068
▁arayış	-8069
▁alanlarında	-8070
▁meyv	-8071
▁iktidarın	-8072
▁politikalar	-8073
▁bozul	-8074
▁metal	-8075
▁düzenle	-8076
▁okullar	-8077
idor	-8078
▁istikamet	-8079
ie	-8080
▁8.	-8081
▁müzakere	-8082
▁biçim	-8083
▁cansız	-8084
▁verdikleri	-8085
▁demirel	-8086
▁polisler	-8087
▁gelişen	-8088
▁aileleri	-8089
ğum	-8090
onsor	-8091
▁anıt	-8092
▁yapısı	-8093
▁ağz	-8094
▁görüşt	-8095
▁tanınan	-8096
▁çerçevede	-8097
▁soruşturması	-8098
▁fuarı	-8099
linik	-8100
fetö	-8101
▁avrupalı	-8102
▁trav	-8103
▁gerekçe	-8104
▁bakıldığında	-8105
▁güneydoğu	-8106
kurt	-8107
▁önündeki	-8108
▁türkmen	-8109
▁irti	-8110
▁turu	-8111
▁alacağı	-8112
▁alınmış	-8113
▁görür	-8114
▁ismini	-8115
▁örgütleri	-8116
▁açıkladığı	-8117
▁yapılacağı	-8118
▁vatandaşlarımız	-8119
▁emr	-8120
▁nikah	-8121
hep	-8122
▁tütün	-8123
▁sundu	-8124
nes	-8125
▁yarattığı	-8126
▁bölgelerinde	-8127
▁odaklı	-8128
▁giresun	-8129
▁borcu	-8130
▁yeterince	-8131
▁müşteriler	-8132
▁arke	-8133
▁bayraktar	-8134
▁enkaz	-8135
▁72	-8136
culu	-8137
▁vadi	-8138
▁koruyucu	-8139
▁olduğunda	-8140
▁bilmiyorum	-8141
üyoruz	-8142
▁sekreter	-8143
▁gerçekleştiren	-8144
▁balkan	-8145
▁yarışması	-8146
▁sınırı	-8147
▁mücadeleyi	-8148
▁fed	-8149
and	-8150
▁güzer	-8151
▁özbek	-8152
▁telekom	-8153
ankara	-8154
▁bulunarak	-8155
▁edilirken	-8156
▁ölçek	-8157
▁iphone	-8158
▁arttığını	-8159
▁soruya	-8160
▁10.	-8161
▁yüzey	-8162
▁milit	-8163
▁mecbur	-8164
▁kulübün	-8165
▁devre	-8166
▁şarj	-8167
▁gerekmektedir	-8168
▁2007	-8169
▁meg	-8170
▁ulaşmak	-8171
▁yasası	-8172
▁meslektaş	-8173
▁örneği	-8174
▁arazi	-8175
▁metrekare	-8176
▁devir	-8177
▁olmuyor	-8178
▁topla	-8179
▁karaca	-8180
▁tarihlerinde	-8181
▁oluşum	-8182
▁dursun	-8183
▁au	-8184
cay	-8185
feri	-8186
▁77	-8187
yuz	-8188
▁kira	-8189
▁belge	-8190
▁iddianamede	-8191
mayacağını	-8192
▁ülkelerine	-8193
▁galip	-8194
▁hariç	-8195
▁kısmını	-8196
▁deği̇	-8197
by	-8198
osunu	-8199
▁iddiası	-8200
▁2023'	-8201
vanı	-8202
▁aktarıldı	-8203
▁şansı	-8204
▁general	-8205
takım	-8206
▁sahipleri	-8207
▁kardeşler	-8208
melidir	-8209
▁yıldızı	-8210
▁aranan	-8211
▁uygulamaları	-8212
i̇ne	-8213
▁güvenliğini	-8214
ou	-8215
▁74	-8216
▁sponsor	-8217
▁stres	-8218
parta	-8219
▁trib	-8220
▁masraf	-8221
▁serkan	-8222
▁bayrağı	-8223
▁tabur	-8224
▁seviyesine	-8225
▁defalarca	-8226
▁gerçekleşecek	-8227
▁görünüm	-8228
▁katılmak	-8229
▁★★	-8230
cumhurbaşk	-8231
▁★★★	-8232
▁i̇le	-8233
▁seçimde	-8234
▁sözler	-8235
▁şeye	-8236
▁öldüğü	-8237
▁bro	-8238
▁yakış	-8239
▁duygusal	-8240
deres	-8241
▁hatip	-8242
tikleri	-8243
madık	-8244
▁puanla	-8245
▁dosya	-8246
▁anlamlı	-8247
▁edilebilir	-8248
üsünü	-8249
ispor	-8250
▁takıma	-8251
▁başlamış	-8252
▁küf	-8253
▁•	-8254
▁anlamında	-8255
eceklerini	-8256
navut	-8257
▁kazanmak	-8258
▁post	-8259
▁day	-8260
acık	-8261
▁görüldüğü	-8262
cılığa	-8263
▁gayet	-8264
▁koridor	-8265
▁töreninde	-8266
▁kutsal	-8267
▁dokunulmaz	-8268
▁filistinli	-8269
▁seslendir	-8270
şar	-8271
▁tünel	-8272
▁halkına	-8273
▁rakibi	-8274
iki	-8275
▁alet	-8276
▁hatırlattı	-8277
▁onlarla	-8278
osman	-8279
▁mutfak	-8280
▁giderken	-8281
▁yakalama	-8282
▁güvenilir	-8283
▁pencer	-8284
▁belediyespor	-8285
▁flor	-8286
▁sezonunda	-8287
▁oluşturdu	-8288
▁ikamet	-8289
iyetini	-8290
▁olduğum	-8291
asa	-8292
▁atmosfer	-8293
▁karantina	-8294
▁işletme	-8295
▁tedaviye	-8296
▁gördüğünü	-8297
▁teor	-8298
▁sürüldü	-8299
umuza	-8300
▁yıkım	-8301
ann	-8302
▁teknolojik	-8303
▁ust	-8304
▁üssü	-8305
▁suriyel	-8306
▁kararıyla	-8307
▁bilmiyor	-8308
▁kurumlar	-8309
▁bart	-8310
▁alakalı	-8311
raj	-8312
▁getirilmesi	-8313
▁fındık	-8314
▁rot	-8315
lilere	-8316
▁beton	-8317
▁uyarısında	-8318
▁baro	-8319
▁mat	-8320
▁atıldı	-8321
▁muhtemelen	-8322
▁geçirmek	-8323
▁karayolu	-8324
▁iktidara	-8325
emli	-8326
▁char	-8327
amonu	-8328
▁duruyor	-8329
▁2-1	-8330
▁dor	-8331
ilerinde	-8332
▁saadet	-8333
▁hayvancılık	-8334
▁söylüyorum	-8335
ani	-8336
▁kongresi	-8337
▁üyelik	-8338
▁gelmişti	-8339
▁hastanın	-8340
▁muk	-8341
▁trafiğe	-8342
▁mektu	-8343
▁çalışanların	-8344
▁dündar	-8345
kart	-8346
▁yangının	-8347
▁ihtiyacımız	-8348
avrup	-8349
▁buluyor	-8350
▁motiv	-8351
▁oyuncunun	-8352
▁öcalan	-8353
▁sahneye	-8354
▁geriledi	-8355
tv	-8356
▁yakınlarında	-8357
▁abdül	-8358
▁david	-8359
▁avro	-8360
▁genelde	-8361
▁dünyasının	-8362
lüğüne	-8363
i̇p	-8364
ıyordu	-8365
▁açıklamasına	-8366
▁onunla	-8367
▁bizlere	-8368
▁seçimlerin	-8369
▁gazı	-8370
▁kasap	-8371
çay	-8372
▁yüzü	-8373
▁imar	-8374
▁düzce	-8375
▁eline	-8376
▁seçen	-8377
aladığı	-8378
▁suçlarla	-8379
▁sayısında	-8380
▁süs	-8381
▁nihat	-8382
▁ric	-8383
anıp	-8384
▁bilgisini	-8385
▁yönetiminde	-8386
▁duruşmaya	-8387
▁suçlarından	-8388
▁vize	-8389
▁törenle	-8390
▁merakla	-8391
▁öncelikli	-8392
▁[	-8393
hem	-8394
app	-8395
▁şirketleri	-8396
▁kasab	-8397
▁aylarda	-8398
▁kategorisinde	-8399
▁yanıtını	-8400
▁infaz	-8401
▁ayakkabı	-8402
▁seviyede	-8403
▁bağdat	-8404
▁masum	-8405
▁christ	-8406
▁yarışma	-8407
▁ercan	-8408
▁savunuyor	-8409
▁olmasa	-8410
▁8'	-8411
▁sonuçlarını	-8412
sp	-8413
▁listesi	-8414
▁muhteşem	-8415
▁krizin	-8416
▁öncülü	-8417
ecekler	-8418
▁hikmet	-8419
dine	-8420
▁pist	-8421
▁etmesini	-8422
▁zihniyet	-8423
...”	-8424
gamber	-8425
▁müsa	-8426
▁bulunmaktadır	-8427
▁izle	-8428
▁bursaspor	-8429
ayım	-8430
▁direniş	-8431
▁parça	-8432
ebilmesi	-8433
▁ilti	-8434
▁yürü	-8435
ole	-8436
▁idam	-8437
▁kolları	-8438
▁kıymetli	-8439
▁çatışmalar	-8440
▁diledi	-8441
▁danim	-8442
▁prov	-8443
▁telefonla	-8444
▁69	-8445
▁buğday	-8446
off	-8447
ımızdan	-8448
▁çalışanı	-8449
▁intik	-8450
▁edebilir	-8451
▁ov	-8452
▁arş	-8453
ore	-8454
▁muş	-8455
eceğiniz	-8456
▁tamamlanan	-8457
▁bot	-8458
▁fig	-8459
▁olaya	-8460
▁kaçtı	-8461
-8	-8462
ektif	-8463
▁biber	-8464
▁akciğer	-8465
▁ceylan	-8466
▁düştüğü	-8467
▁fit	-8468
▁kazak	-8469
▁gözük	-8470
▁marşı	-8471
bolu	-8472
▁bingöl	-8473
▁hang	-8474
▁verdim	-8475
▁miktarı	-8476
▁oluşturmak	-8477
▁krallık	-8478
▁kesinti	-8479
▁karabağ	-8480
▁kökenli	-8481
▁şair	-8482
▁kronik	-8483
▁kına	-8484
▁öğretmenler	-8485
▁nitelikli	-8486
▁imha	-8487
▁fırtına	-8488
▁elimizden	-8489
▁karam	-8490
▁dediğimiz	-8491
▁birimi	-8492
▁asist	-8493
▁karn	-8494
▁menderes	-8495
▁tekst	-8496
▁başvurusu	-8497
▁kayıtlı	-8498
▁yüklü	-8499
▁tabanc	-8500
▁9.	-8501
▁trilyon	-8502
▁stok	-8503
yası	-8504
aydı	-8505
▁tunç	-8506
ıcılık	-8507
▁uysal	-8508
▁01	-8509
▁bankalar	-8510
▁emanet	-8511
▁veter	-8512
▁sunum	-8513
▁geçmesi	-8514
tion	-8515
▁incelemelerde	-8516
lıkta	-8517
▁yükümlül	-8518
▁robot	-8519
dırdı	-8520
baba	-8521
▁macaristan	-8522
▁vurgulandı	-8523
hanet	-8524
▁tuv	-8525
▁1.5	-8526
▁olayların	-8527
▁yönlü	-8528
▁japon	-8529
▁kanunun	-8530
▁saati	-8531
▁kütüphan	-8532
▁lezzet	-8533
▁hedefimiz	-8534
▁70'	-8535
▁loto	-8536
▁resmen	-8537
pro	-8538
▁komş	-8539
▁arnavut	-8540
▁yargılanan	-8541
ung	-8542
beyazlı	-8543
▁çalışmanın	-8544
▁madal	-8545
▁tamamlayan	-8546
gre	-8547
▁iğ	-8548
▁varyan	-8549
▁uygulanacak	-8550
▁uzan	-8551
▁başlama	-8552
▁kimseye	-8553
▁ima	-8554
▁batman	-8555
▁oradaki	-8556
wa	-8557
▁önemini	-8558
▁yerlere	-8559
▁taahhüt	-8560
▁zirve	-8561
▁#	-8562
▁paketi	-8563
brek	-8564
▁münih	-8565
▁uyarısı	-8566
▁tutuklanan	-8567
▁ihtiyaçlarını	-8568
gören	-8569
▁kaşık	-8570
▁ihale	-8571
incan	-8572
▁kıyasla	-8573
▁etmiştir	-8574
▁frank	-8575
▁raporunda	-8576
▁hristiyan	-8577
enlerin	-8578
adağ	-8579
▁kalmak	-8580
▁duyan	-8581
▁sağladığı	-8582
▁sömür	-8583
▁kaybed	-8584
▁elini	-8585
▁times	-8586
▁90'	-8587
▁yalova	-8588
▁perde	-8589
▁youtube	-8590
▁aşamada	-8591
▁(5	-8592
▁sili	-8593
▁konuldu	-8594
▁roket	-8595
▁?	-8596
imle	-8597
▁dışarıda	-8598
▁çekici	-8599
▁ysk	-8600
▁doğdu	-8601
▁etrafında	-8602
▁emniyetteki	-8603
mece	-8604
▁viz	-8605
leyip	-8606
üldüğü	-8607
▁norveç	-8608
▁hayvanları	-8609
▁sevinç	-8610
▁antalyaspor	-8611
▁saatlik	-8612
▁yaşandığını	-8613
lıca	-8614
iğin	-8615
▁atma	-8616
▁önünü	-8617
▁engellemek	-8618
▁61	-8619
▁felse	-8620
▁venez	-8621
▁oynay	-8622
▁78	-8623
▁mahsur	-8624
▁sözleriyle	-8625
▁buçuk	-8626
▁hid	-8627
ayir	-8628
parator	-8629
▁bölgesine	-8630
ned	-8631
türü	-8632
▁gelince	-8633
tüm	-8634
yim	-8635
▁bakanlığının	-8636
i̇hm	-8637
▁sorgulama	-8638
▁odaklan	-8639
▁arkadaşlarımız	-8640
▁dünyaca	-8641
vekkil	-8642
▁dizinin	-8643
▁çalışanlar	-8644
▁yayınlan	-8645
▁görüşlerine	-8646
▁joe	-8647
dırma	-8648
▁etkinliği	-8649
▁tunus	-8650
aklı	-8651
▁elif	-8652
▁havadan	-8653
▁vesil	-8654
▁destekli	-8655
koç	-8656
▁best	-8657
▁içme	-8658
▁şeyh	-8659
▁okan	-8660
▁sakinleri	-8661
▁beyoğlu	-8662
▁yoldan	-8663
▁isteyenler	-8664
▁sebeple	-8665
▁pahalı	-8666
▁dinamik	-8667
▁maliyeti	-8668
laşması	-8669
▁bölgesindeki	-8670
▁ifadesinde	-8671
▁kastamonu	-8672
▁kale	-8673
▁kaybettiğini	-8674
▁tıpkı	-8675
▁kendisinden	-8676
▁i̇hracat	-8677
▁gündemde	-8678
▁evlerine	-8679
▁nereden	-8680
▁prog	-8681
▁nadir	-8682
▁haml	-8683
▁liber	-8684
▁sivasspor	-8685
▁merkezleri	-8686
▁hediy	-8687
▁çekiliş	-8688
▁i̇stihbarat	-8689
▁çeviren	-8690
▁yapılmasını	-8691
▁iftir	-8692
▁ibadet	-8693
yorum	-8694
▁kanseri	-8695
▁anlaşmanın	-8696
▁mahkemenin	-8697
ılmak	-8698
▁girmek	-8699
üyü	-8700
▁kerem	-8701
gay	-8702
▁yapmıştı	-8703
▁vadede	-8704
▁mate	-8705
▁62	-8706
▁çıl	-8707
▁konuşmasını	-8708
▁edecektir	-8709
▁yakında	-8710
ediler	-8711
▁indi	-8712
▁eğlence	-8713
▁olaydan	-8714
▁ülkelerinde	-8715
▁durak	-8716
▁kusur	-8717
ülasyon	-8718
▁aslı	-8719
▁şiddete	-8720
▁tepkiler	-8721
▁yoğunluk	-8722
▁etkinlikte	-8723
▁çizdi	-8724
▁hayvanların	-8725
luğunda	-8726
▁oğlunun	-8727
▁sembol	-8728
▁karabük	-8729
avrupa	-8730
ood	-8731
▁kaldırılan	-8732
▁ofis	-8733
▁rektörü	-8734
▁aksoy	-8735
tiğimiz	-8736
▁sağlığını	-8737
▁böbrek	-8738
▁sanal	-8739
▁görevinden	-8740
▁fikri	-8741
▁seyirc	-8742
▁doğusunda	-8743
▁tutuksuz	-8744
▁kapsayan	-8745
▁şebek	-8746
▁84	-8747
▁isparta	-8748
▁tahsis	-8749
ref	-8750
söz	-8751
▁marmaris	-8752
▁şükür	-8753
kul	-8754
▁diyorum	-8755
▁burcu	-8756
▁i̇nternet	-8757
▁83	-8758
▁desteğini	-8759
ğından	-8760
sün	-8761
▁yangında	-8762
ms	-8763
▁muz	-8764
▁özellikleri	-8765
▁özerk	-8766
▁lak	-8767
▁edici	-8768
▁topluluk	-8769
▁taşımak	-8770
yaka	-8771
▁kararlaştır	-8772
ekonom	-8773
▁sizler	-8774
▁tahliy	-8775
▁oynadı	-8776
▁hissediyor	-8777
▁bizleri	-8778
▁saldırıyı	-8779
▁kaydet	-8780
▁mühim	-8781
▁haş	-8782
▁vas	-8783
▁girmesi	-8784
▁manavgat	-8785
▁edilmesini	-8786
melerine	-8787
▁araştırmaya	-8788
▁nitekim	-8789
epe	-8790
emmel	-8791
▁çiftçiler	-8792
▁gündemine	-8793
▁sıç	-8794
ebiliriz	-8795
▁yaşadıkları	-8796
▁hamile	-8797
dağı	-8798
▁baktığımızda	-8799
ınızda	-8800
▁gerginlik	-8801
▁anımsat	-8802
▁babacan	-8803
▁ticareti	-8804
▁ormanlık	-8805
ğüne	-8806
▁koyuyor	-8807
▁sisteme	-8808
▁noktasına	-8809
eli̇	-8810
▁yapılmasına	-8811
▁yenilenebilir	-8812
▁kucak	-8813
▁zorundayız	-8814
▁öm	-8815
▁gerilim	-8816
▁diyet	-8817
▁jam	-8818
▁kargo	-8819
▁toplumu	-8820
▁hitap	-8821
▁burdur	-8822
▁veteriner	-8823
▁konuşması	-8824
▁eğilim	-8825
olan	-8826
▁zihin	-8827
▁fotoğrafli	-8828
▁hip	-8829
▁başa	-8830
▁aksi	-8831
▁til	-8832
▁düşüyor	-8833
yur	-8834
▁rev	-8835
mini	-8836
▁görmez	-8837
▁esir	-8838
▁destekleyen	-8839
▁jose	-8840
▁aşan	-8841
▁saklı	-8842
▁sorular	-8843
▁ağırlıklı	-8844
▁çalıştıklarını	-8845
▁nişan	-8846
▁çekir	-8847
ımızla	-8848
▁kabine	-8849
▁olmasın	-8850
▁ayından	-8851
▁afyonkarahisar	-8852
▁akif	-8853
▁arayan	-8854
▁boru	-8855
▁burun	-8856
▁adayları	-8857
▁pyd	-8858
▁uygulanması	-8859
übe	-8860
vey	-8861
rit	-8862
▁geleni	-8863
tip	-8864
▁ihrac	-8865
▁sağcı	-8866
▁kayak	-8867
mıyorum	-8868
▁değişti	-8869
▁sedat	-8870
▁i̇lg	-8871
▁tartışmalar	-8872
▁hedefliyor	-8873
▁ilgisi	-8874
▁ras	-8875
▁hz	-8876
▁birine	-8877
▁eyüp	-8878
▁saldırılar	-8879
▁meb	-8880
ğeri	-8881
▁insana	-8882
oğu	-8883
▁sonuçta	-8884
▁(19	-8885
▁inanıyoruz	-8886
kent	-8887
▁kula	-8888
▁mide	-8889
▁yıllarca	-8890
▁bağımsızlık	-8891
laştırma	-8892
▁duyurmuştu	-8893
▁sipariş	-8894
▁okulda	-8895
▁şan	-8896
hael	-8897
burada	-8898
ilmeye	-8899
amızı	-8900
▁peygamber	-8901
▁boğaziçi	-8902
▁çalışanlarının	-8903
▁boya	-8904
▁görüşmeleri	-8905
▁dele	-8906
▁moral	-8907
▁ordusunun	-8908
▁olmadığına	-8909
▁randev	-8910
▁davasında	-8911
duğum	-8912
▁etnik	-8913
▁tüp	-8914
▁i̇ktidar	-8915
▁ötürü	-8916
▁bbc	-8917
▁80'	-8918
▁kullanılıyor	-8919
▁doktora	-8920
▁işkence	-8921
oni	-8922
▁bileş	-8923
▁programa	-8924
▁hafız	-8925
▁makal	-8926
▁öncü	-8927
▁üzeri	-8928
laştırılmış	-8929
▁göztepe	-8930
▁hatırlatarak	-8931
▁fiş	-8932
▁yaşadığımız	-8933
▁sığ	-8934
▁müze	-8935
▁yasin	-8936
▁05	-8937
▁korkunç	-8938
▁zararlı	-8939
▁söyledim	-8940
▁atlat	-8941
▁kurtulmuş	-8942
▁fuat	-8943
▁verildiğini	-8944
▁konferansı	-8945
▁pişman	-8946
▁skandal	-8947
▁yardımıyla	-8948
▁seçimlere	-8949
▁orgeneral	-8950
▁yeni̇	-8951
▁danışmanı	-8952
▁cesedi	-8953
▁askerlerin	-8954
▁mücadeleye	-8955
▁başlaması	-8956
▁ağrısı	-8957
▁tekstil	-8958
▁koşt	-8959
▁i̇hsan	-8960
▁uyumlu	-8961
▁ster	-8962
▁edilmesine	-8963
▁mahkemece	-8964
izasyon	-8965
▁sulama	-8966
▁filmde	-8967
▁kilometrelik	-8968
▁karşılığı	-8969
▁öykü	-8970
ifor	-8971
▁adamın	-8972
▁tecrübeli	-8973
▁istatistik	-8974
▁okuyan	-8975
▁ölümü	-8976
▁oturma	-8977
▁götürdü	-8978
▁topluma	-8979
▁yorgun	-8980
▁inanc	-8981
▁40'	-8982
▁bakanlığımız	-8983
i̇lk	-8984
▁panik	-8985
▁kütahya	-8986
likte	-8987
melik	-8988
bilmek	-8989
▁yargılama	-8990
▁erc	-8991
▁çim	-8992
▁otopark	-8993
▁budur	-8994
▁i̇ddiaya	-8995
▁şenol	-8996
▁açılacak	-8997
aydın	-8998
/1	-8999
▁erzincan	-9000
▁zır	-9001
▁atilla	-9002
▁ortala	-9003
▁alıyoruz	-9004
▁anlaşmaz	-9005
▁hor	-9006
▁döneme	-9007
▁tutmak	-9008
▁semt	-9009
▁gençlere	-9010
-200	-9011
▁ifadelere	-9012
▁yaptılar	-9013
▁burç	-9014
▁reddetti	-9015
▁sad	-9016
onews	-9017
▁venezuel	-9018
▁okullarda	-9019
▁ps	-9020
alp	-9021
▁muhabiri	-9022
▁faaliyetlerini	-9023
▁sertifik	-9024
bilmesi	-9025
şık	-9026
▁evlerinde	-9027
▁kaynaklanan	-9028
▁antrenör	-9029
▁kalkan	-9030
dünya	-9031
▁ii	-9032
iliğin	-9033
▁yazan	-9034
cilere	-9035
▁i̇tfaiye	-9036
▁şeklindeki	-9037
xit	-9038
▁ekos	-9039
▁i̇lişkiler	-9040
▁şık	-9041
dini	-9042
yoruz	-9043
▁böcek	-9044
▁birtakım	-9045
▁yapabilir	-9046
liğindeki	-9047
60	-9048
▁halı	-9049
▁tef	-9050
▁kalır	-9051
▁yetişkin	-9052
▁eskiden	-9053
elerimiz	-9054
▁pe	-9055
▁tolga	-9056
▁yumuş	-9057
▁li̇	-9058
▁2013'	-9059
▁menf	-9060
▁milleti	-9061
ski	-9062
▁muhat	-9063
▁güçlük	-9064
▁tarihinden	-9065
▁oyuna	-9066
cir	-9067
mayacağız	-9068
▁cüml	-9069
▁gran	-9070
▁tabanca	-9071
▁air	-9072
▁aşık	-9073
ğimi	-9074
▁arşiv	-9075
lıktan	-9076
▁hel	-9077
▁otorit	-9078
▁samimi	-9079
▁temsilciler	-9080
▁cihan	-9081
▁düzeyinde	-9082
▁ofisi	-9083
aslan	-9084
▁.	-9085
▁gözü	-9086
eğinin	-9087
▁böylelikle	-9088
▁düzeni	-9089
▁kavuştur	-9090
▁sorunlarını	-9091
▁duyduğunu	-9092
▁yüce	-9093
▁apartman	-9094
▁́	-9095
▁evr	-9096
▁kazandığı	-9097
▁istedim	-9098
▁patlayıcı	-9099
▁rolü	-9100
▁idi	-9101
▁kurallarına	-9102
▁batılı	-9103
▁koronavir	-9104
▁voley	-9105
izin	-9106
▁olmazsa	-9107
pss	-9108
▁teknolojileri	-9109
bunun	-9110
unt	-9111
▁göğüs	-9112
landiya	-9113
▁blo	-9114
▁okulların	-9115
▁okyan	-9116
▁kaptan	-9117
▁gemisi	-9118
▁hikây	-9119
▁doku	-9120
▁laboratuvar	-9121
▁what	-9122
▁finale	-9123
▁karşılaşma	-9124
▁deri	-9125
▁çoban	-9126
▁cevabı	-9127
▁türki̇ye	-9128
▁taraflar	-9129
▁ödü	-9130
▁kararda	-9131
▁riskini	-9132
▁oyu	-9133
▁eseri	-9134
ileceği	-9135
▁otopsi	-9136
cistan	-9137
abilm	-9138
▁sevgilisi	-9139
eceğimizi	-9140
▁süreyle	-9141
ira	-9142
▁borsa	-9143
▁ülkesinin	-9144
▁seslen	-9145
▁güzergah	-9146
▁peşinde	-9147
ino	-9148
▁ligin	-9149
▁hapse	-9150
▁gerekirse	-9151
▁2,5	-9152
▁verirken	-9153
▁almayı	-9154
▁nij	-9155
▁mevdu	-9156
▁yıldön	-9157
şa	-9158
▁açığa	-9159
▁azın	-9160
▁kanlı	-9161
▁kıdem	-9162
▁yoz	-9163
▁dinç	-9164
▁ağabey	-9165
▁toplumda	-9166
▁zamana	-9167
au	-9168
sinler	-9169
▁keşif	-9170
▁sözlü	-9171
▁ekosistem	-9172
▁asf	-9173
▁dert	-9174
▁suya	-9175
▁hastası	-9176
bab	-9177
▁akaryak	-9178
daf	-9179
▁yarısında	-9180
ilip	-9181
▁tatbikat	-9182
▁fifa	-9183
▁salonunda	-9184
▁yakaladı	-9185
▁tehlikeye	-9186
anların	-9187
▁dışarıdan	-9188
amızın	-9189
▁diler	-9190
lerimizle	-9191
▁ekibinin	-9192
▁çorum	-9193
▁müdürlük	-9194
▁mükemmel	-9195
▁listesinde	-9196
▁verdiklerini	-9197
▁bölgeden	-9198
▁çıkarıldığı	-9199
ılabilecek	-9200
▁yatan	-9201
val	-9202
▁99	-9203
ofya	-9204
▁bilirkiş	-9205
gatif	-9206
▁taşıdı	-9207
▁öfk	-9208
▁varlığı	-9209
▁takdim	-9210
▁fotoğrafları	-9211
enkul	-9212
▁sırbistan	-9213
▁elindeki	-9214
▁sınava	-9215
akk	-9216
▁imzal	-9217
▁çevik	-9218
▁milliyetçi	-9219
▁ikisi	-9220
ümüzü	-9221
▁klinik	-9222
▁aşılama	-9223
▁00	-9224
▁talebinde	-9225
▁fabrika	-9226
▁olmasından	-9227
▁diyabet	-9228
▁cennet	-9229
▁2011'	-9230
▁öğrencinin	-9231
▁irtibat	-9232
▁hâkim	-9233
▁oranları	-9234
▁olsaydı	-9235
abildi	-9236
▁euronews	-9237
ori	-9238
▁lastik	-9239
▁araştırmacı	-9240
ich	-9241
▁ilı	-9242
▁çıkarken	-9243
▁had	-9244
▁col	-9245
▁bilgilendirme	-9246
▁gittiğini	-9247
dığınız	-9248
▁askerler	-9249
▁thy	-9250
▁çant	-9251
▁pazarı	-9252
▁şener	-9253
▁orij	-9254
▁normalleşme	-9255
▁yöntemi	-9256
▁milyona	-9257
▁havada	-9258
▁ilişkisi	-9259
▁2000	-9260
▁emlak	-9261
▁i̇smet	-9262
iyel	-9263
▁faci	-9264
▁vb	-9265
▁acaba	-9266
▁arasından	-9267
▁geliştirilen	-9268
▁eyaletinde	-9269
▁ram	-9270
▁tutk	-9271
i̇nde	-9272
▁şehirde	-9273
▁çınar	-9274
▁satır	-9275
alaş	-9276
▁pasaport	-9277
▁oğul	-9278
gul	-9279
▁karşıt	-9280
▁etmiyor	-9281
çekmece	-9282
liyorum	-9283
▁artar	-9284
▁talepleri	-9285
▁partil	-9286
▁yetmez	-9287
▁müvekkil	-9288
▁suikast	-9289
▁79	-9290
ax	-9291
▁sayıları	-9292
▁satan	-9293
▁gev	-9294
▁harika	-9295
ras	-9296
abıta	-9297
▁konsey	-9298
▁imkân	-9299
▁i̇şçi	-9300
ting	-9301
azırda	-9302
▁lirası	-9303
▁sulh	-9304
▁kosova	-9305
▁ötesinde	-9306
▁medyadan	-9307
genel	-9308
▁büyüklüğünde	-9309
şim	-9310
▁2002	-9311
▁dostu	-9312
▁ziyade	-9313
▁danimarka	-9314
....	-9315
▁anah	-9316
demirli	-9317
lasyonu	-9318
linin	-9319
▁çevrede	-9320
▁silahla	-9321
▁kurtarmak	-9322
▁planlanıyor	-9323
▁uçağın	-9324
▁öldürme	-9325
▁çıkarılması	-9326
yıldı	-9327
▁varlığını	-9328
▁muhammet	-9329
sev	-9330
▁oynuyor	-9331
▁denilen	-9332
▁servet	-9333
umcu	-9334
▁coğrafy	-9335
▁erdal	-9336
▁kadem	-9337
▁tescil	-9338
▁andre	-9339
▁yarattı	-9340
▁sevilen	-9341
▁gösterdiğini	-9342
▁konumunda	-9343
ovyet	-9344
▁uyarınca	-9345
▁adımları	-9346
▁detayları	-9347
▁nijer	-9348
▁kutup	-9349
▁fikr	-9350
ney	-9351
▁süresince	-9352
▁haftalarda	-9353
▁parlamenter	-9354
▁celal	-9355
▁telaf	-9356
▁bahçesi	-9357
▁hepsini	-9358
▁geldim	-9359
▁cemil	-9360
▁15'	-9361
▁ahmed	-9362
▁umarım	-9363
▁yapılarak	-9364
▁acar	-9365
▁yüzüne	-9366
▁ayağa	-9367
▁imzalanan	-9368
▁pakdemirli	-9369
kez	-9370
dafone	-9371
▁amirliği	-9372
azz	-9373
▁kef	-9374
ehr	-9375
▁arkadaşlarım	-9376
▁çevredeki	-9377
▁yanıtı	-9378
▁büyüyen	-9379
▁iktidarı	-9380
▁müzisyen	-9381
▁kupa	-9382
▁sis	-9383
▁yollarını	-9384
▁hissed	-9385
▁eli	-9386
▁cerrahi	-9387
▁fı	-9388
▁giriyor	-9389
▁zamanla	-9390
▁yetkililerin	-9391
▁hukukun	-9392
▁yönetici	-9393
▁finlandiya	-9394
▁açıyor	-9395
▁11.	-9396
▁alanın	-9397
erik	-9398
▁semih	-9399
▁etkinlikleri	-9400
▁fiziki	-9401
▁master	-9402
▁karışık	-9403
▁falan	-9404
▁kanalı	-9405
▁i̇rlanda	-9406
lanır	-9407
oluk	-9408
▁semp	-9409
▁müş	-9410
▁istemiyle	-9411
▁gıd	-9412
th	-9413
ulur	-9414
▁sevgili	-9415
▁uyardı	-9416
▁sanıkların	-9417
▁yapabilecek	-9418
▁michael	-9419
iba	-9420
▁iniş	-9421
▁bosna	-9422
larımızda	-9423
▁ayv	-9424
▁burc	-9425
bilirim	-9426
▁araçta	-9427
▁sonuçlarına	-9428
i̇ye	-9429
▁me	-9430
▁cari	-9431
▁etkileyen	-9432
▁yerler	-9433
yaz	-9434
▁çıkaran	-9435
▁rüş	-9436
âh	-9437
▁şö	-9438
▁bilinc	-9439
▁şeridi	-9440
ekon	-9441
▁üzüm	-9442
▁egzersiz	-9443
▁tweet	-9444
▁arkadaşlar	-9445
▁mensuplarının	-9446
▁ekonomisine	-9447
ahit	-9448
▁yandaş	-9449
▁fal	-9450
▁sorumluluğu	-9451
▁ray	-9452
▁yumurta	-9453
▁ag	-9454
▁toplantının	-9455
sor	-9456
▁borc	-9457
▁zırh	-9458
▁denem	-9459
▁profesör	-9460
▁şeyden	-9461
▁dayanık	-9462
▁cezayir	-9463
▁2006	-9464
▁kadınları	-9465
usuna	-9466
▁çalıştık	-9467
leştirme	-9468
düklerini	-9469
▁vitam	-9470
üldüğünü	-9471
rab	-9472
▁com	-9473
▁192	-9474
how	-9475
sos	-9476
▁çıkmıştı	-9477
▁i̇ne	-9478
sah	-9479
sapp	-9480
▁kısmının	-9481
çilik	-9482
ğimizde	-9483
▁futbolcular	-9484
▁yollar	-9485
▁95	-9486
▁aktivist	-9487
▁wal	-9488
lendiğini	-9489
▁kuşak	-9490
▁aktivit	-9491
▁kültürü	-9492
▁konv	-9493
▁hamil	-9494
▁alımı	-9495
▁projeye	-9496
▁göstergesi	-9497
▁soykırım	-9498
▁saatlerde	-9499
uhan	-9500
▁wil	-9501
▁gayrimenkul	-9502
▁pes	-9503
▁zabıta	-9504
▁görüntülerde	-9505
▁atıl	-9506
nas	-9507
▁ron	-9508
▁yönetmeli	-9509
▁girerek	-9510
▁paylaşımı	-9511
▁planlama	-9512
▁transferi	-9513
duktan	-9514
▁mevzuat	-9515
▁domat	-9516
▁nehri	-9517
eron	-9518
▁müsteş	-9519
kamera	-9520
cül	-9521
▁ziya	-9522
▁eleştiri	-9523
▁çekin	-9524
▁alar	-9525
▁müdürlüğüne	-9526
ydu	-9527
bursa	-9528
▁önemlisi	-9529
dilik	-9530
▁subay	-9531
▁enerjisi	-9532
▁yanındaki	-9533
▁eleme	-9534
▁bastır	-9535
usunun	-9536
▁savcısı	-9537
▁şartlar	-9538
ülerek	-9539
▁vaat	-9540
ulma	-9541
▁astsu	-9542
▁başsağ	-9543
▁venezuela	-9544
dv	-9545
▁86	-9546
▁papa	-9547
▁edenler	-9548
▁ederiz	-9549
▁olmakla	-9550
▁kayserispor	-9551
▁isimlerin	-9552
▁alışkan	-9553
▁görüyorum	-9554
ancı	-9555
▁adlandırılan	-9556
yıldız	-9557
▁istemiyor	-9558
▁olabiliyor	-9559
kender	-9560
▁vereceği	-9561
▁ihracatı	-9562
▁pekin	-9563
▁çarpıcı	-9564
▁parlak	-9565
▁i̇şbirliği	-9566
▁ayas	-9567
▁hastanesine	-9568
leşen	-9569
▁yayınladı	-9570
▁nihayet	-9571
▁traktör	-9572
▁talimatı	-9573
▁191	-9574
▁danıştay	-9575
▁bahçesinde	-9576
▁görüntülendi	-9577
mad	-9578
▁bölümünü	-9579
ettin	-9580
▁i̇ranlı	-9581
▁oynaya	-9582
▁kurallara	-9583
▁düşünmüyor	-9584
▁göze	-9585
▁istiş	-9586
▁send	-9587
▁getirecek	-9588
▁suçlamaları	-9589
▁akım	-9590
▁yönetimine	-9591
▁etti̇	-9592
▁araştırmada	-9593
▁kararlılık	-9594
▁edeceklerini	-9595
▁ekonomisinin	-9596
▁lav	-9597
ni̇n	-9598
▁musa	-9599
▁tutuklama	-9600
▁rady	-9601
▁sovyet	-9602
▁negatif	-9603
▁tespiti	-9604
▁tutun	-9605
▁i̇negöl	-9606
▁vereceğiz	-9607
▁kullanıldığı	-9608
▁taraflı	-9609
▁etmeleri	-9610
mü	-9611
▁kardeşim	-9612
▁ye	-9613
▁şev	-9614
▁ilham	-9615
red	-9616
▁60'	-9617
▁yaratan	-9618
▁durumunu	-9619
.30'	-9620
▁2012'	-9621
▁periy	-9622
▁ürdün	-9623
▁yapılacağını	-9624
▁87	-9625
ug	-9626
▁çalışmalarında	-9627
▁yaşamaya	-9628
alın	-9629
▁gazetesinin	-9630
▁tüken	-9631
mekle	-9632
▁mesai	-9633
▁ailelerin	-9634
▁len	-9635
ited	-9636
yalım	-9637
▁elbis	-9638
▁uzanan	-9639
▁toplama	-9640
▁sürü	-9641
madım	-9642
▁tuvalet	-9643
▁muaf	-9644
▁sk	-9645
▁yaşamı	-9646
ment	-9647
kten	-9648
▁sarık	-9649
▁voleybol	-9650
▁başkanlığına	-9651
▁koyduğu	-9652
▁servisi	-9653
▁kazanım	-9654
▁aşının	-9655
sım	-9656
▁hül	-9657
▁döner	-9658
▁kamuoyunda	-9659
▁çocuklarını	-9660
▁sürerken	-9661
▁oranla	-9662
▁diğeri	-9663
▁çinli	-9664
▁alerj	-9665
▁yatırımlar	-9666
▁misyon	-9667
▁torun	-9668
▁şeyleri	-9669
ileceğini	-9670
▁altının	-9671
akende	-9672
▁iyice	-9673
▁brexit	-9674
▁â	-9675
▁zamandır	-9676
▁yapıyorlar	-9677
▁limanı	-9678
▁çaliş	-9679
liliğini	-9680
▁kabin	-9681
dor	-9682
▁istey	-9683
▁yanlısı	-9684
pdy	-9685
meliyiz	-9686
▁araba	-9687
▁yılını	-9688
▁harca	-9689
vatan	-9690
▁seyret	-9691
▁kaan	-9692
▁avm	-9693
▁laik	-9694
▁sıvı	-9695
▁aşağ	-9696
ack	-9697
▁değerleri	-9698
▁kahve	-9699
▁açmak	-9700
▁benden	-9701
▁vodafone	-9702
bre	-9703
▁sark	-9704
▁vesile	-9705
▁erbaş	-9706
ota	-9707
▁fırlat	-9708
tiklerini	-9709
chp	-9710
,0	-9711
fett	-9712
▁yemin	-9713
▁razı	-9714
▁"1	-9715
▁golü	-9716
▁mans	-9717
hani	-9718
▁köl	-9719
▁82	-9720
laç	-9721
▁araştırmacılar	-9722
▁helal	-9723
▁akaryakıt	-9724
oter	-9725
▁zel	-9726
▁şem	-9727
▁gürcistan	-9728
▁sağlama	-9729
esyon	-9730
▁koyan	-9731
▁derne	-9732
cinsel	-9733
▁kurulacak	-9734
▁bekledi	-9735
▁şartıyla	-9736
▁bırakan	-9737
▁tutuyor	-9738
▁öldürdü	-9739
▁piy	-9740
▁premi	-9741
▁takvim	-9742
▁yaralandığı	-9743
▁sıradan	-9744
▁gre	-9745
▁çır	-9746
▁seviyeye	-9747
kah	-9748
seç	-9749
▁yaralılar	-9750
▁vey	-9751
▁hayatında	-9752
▁ortamı	-9753
▁bizimle	-9754
ure	-9755
▁cir	-9756
▁sportif	-9757
▁fosil	-9758
▁düşmesi	-9759
▁güncelleme	-9760
▁havay	-9761
sten	-9762
▁whatsapp	-9763
5)	-9764
▁hi	-9765
silah	-9766
▁fetullah	-9767
tığınız	-9768
▁duyarlı	-9769
▁teröristlerin	-9770
▁asfalt	-9771
▁ekonominin	-9772
▁çür	-9773
iyesi	-9774
likten	-9775
▁karşılaştır	-9776
▁siirt	-9777
ecilik	-9778
2)	-9779
cell	-9780
▁anlaya	-9781
▁hükümete	-9782
lit	-9783
▁orijinal	-9784
▁grupların	-9785
▁parası	-9786
▁metrekarelik	-9787
▁boyun	-9788
▁başsağlığı	-9789
▁belediyenin	-9790
lav	-9791
▁gittim	-9792
coin	-9793
lali	-9794
▁yara	-9795
▁koleksiyon	-9796
▁prote	-9797
▁uğrayan	-9798
▁etken	-9799
▁kullanı	-9800
laşan	-9801
lemiş	-9802
▁pankart	-9803
▁ceset	-9804
ebilen	-9805
▁astsubay	-9806
▁amacımız	-9807
rusya	-9808
lerimizde	-9809
vri	-9810
▁i̇dare	-9811
▁şiddeti	-9812
▁koyun	-9813
▁ülkemizi	-9814
▁balıkçı	-9815
i̇y	-9816
▁yoksun	-9817
▁pazarlama	-9818
▁dizisinin	-9819
▁muhafazakar	-9820
▁değişiklikler	-9821
▁şiddetle	-9822
▁güçlerin	-9823
▁şifr	-9824
▁ince	-9825
▁vuran	-9826
▁bilişim	-9827
▁takımının	-9828
▁minik	-9829
▁tarihin	-9830
▁yarıda	-9831
▁takımda	-9832
▁ebru	-9833
▁sorgulan	-9834
▁çalışmalarda	-9835
▁litre	-9836
▁atalay	-9837
▁muhalefetin	-9838
ife	-9839
▁adayların	-9840
▁artırılması	-9841
▁bakar	-9842
▁düşündü	-9843
esco	-9844
▁çözül	-9845
▁metreküp	-9846
▁james	-9847
ıplak	-9848
▁altından	-9849
▁ısı	-9850
omob	-9851
▁2-	-9852
▁edebilecek	-9853
▁12.	-9854
▁hayatının	-9855
▁engelliler	-9856
inizin	-9857
▁açılışı	-9858
▁belediyeler	-9859
▁morg	-9860
..."	-9861
▁havaya	-9862
▁fazlası	-9863
▁mars	-9864
▁perakende	-9865
▁geliri	-9866
▁projeyi	-9867
▁karşımıza	-9868
▁amatör	-9869
▁dinlen	-9870
▁çıkardığı	-9871
▁verilmesini	-9872
▁aksu	-9873
ti̇r	-9874
▁kararla	-9875
▁riz	-9876
▁evleri	-9877
▁olduğumuzu	-9878
▁menfaat	-9879
ümüzün	-9880
çıl	-9881
▁halih	-9882
▁çıkmaya	-9883
▁united	-9884
▁yolunun	-9885
▁berek	-9886
▁haluk	-9887
▁yayınladığı	-9888
kendi	-9889
▁mutlulu	-9890
▁karın	-9891
▁fotoğrafını	-9892
▁kızın	-9893
▁bulduğu	-9894
wei	-9895
▁sadık	-9896
kadın	-9897
▁entegre	-9898
▁eleştirdi	-9899
▁berabere	-9900
▁birincisi	-9901
▁tom	-9902
▁sahiptir	-9903
▁şafak	-9904
▁şehrinde	-9905
▁hektar	-9906
▁dereceye	-9907
▁toplandı	-9908
▁sağlar	-9909
▁adan	-9910
amanın	-9911
▁olacağ	-9912
▁keyifli	-9913
▁aklı	-9914
▁hırvat	-9915
luğunun	-9916
▁beklem	-9917
▁aras	-9918
▁ai̇hm	-9919
lini	-9920
▁ellerinde	-9921
▁ortaokul	-9922
eceğinin	-9923
ano	-9924
▁oynamak	-9925
▁dizisinde	-9926
▁katma	-9927
▁iddialar	-9928
▁olacağına	-9929
▁hayvanlar	-9930
▁etkinlikler	-9931
▁tanrı	-9932
▁durumuna	-9933
▁dürüst	-9934
▁jüri	-9935
▁sahiplerine	-9936
▁ziyarette	-9937
▁sözünü	-9938
▁katılma	-9939
▁sloganı	-9940
▁öngörülüyor	-9941
▁çizgi	-9942
▁konudaki	-9943
▁dere	-9944
▁titiz	-9945
▁bitlis	-9946
▁vakti	-9947
▁2005	-9948
▁ayasofya	-9949
▁başladım	-9950
▁bekleme	-9951
▁kade	-9952
▁paul	-9953
▁makine	-9954
hav	-9955
▁kuzeyinde	-9956
▁artvin	-9957
▁eroğlu	-9958
▁robert	-9959
▁nus	-9960
ünce	-9961
▁restorasyon	-9962
▁satılan	-9963
yeş	-9964
▁rejimi	-9965
▁lat	-9966
▁otomob	-9967
▁2004	-9968
▁ağırlaştırılmış	-9969
▁04	-9970
▁karşılaşmanın	-9971
eceksiniz	-9972
▁yayımlandı	-9973
▁ardı	-9974
▁obez	-9975
▁liderler	-9976
▁yükseköğretim	-9977
▁camisi	-9978
▁kurumların	-9979
▁taksit	-9980
▁berat	-9981
▁performansı	-9982
▁bahsediyor	-9983
▁mücadelem	-9984
▁yangına	-9985
▁tamamını	-9986
▁bulunuldu	-9987
▁kuralları	-9988
▁pel	-9989
▁beklet	-9990
▁konulan	-9991
▁kutladı	-9992
▁keşfet	-9993
▁demet	-9994
▁daral	-9995
▁obj	-9996
ladım	-9997
▁iştir	-9998
▁annesinin	-9999
▁şartlarda	-10000
leşmiş	-10001
▁88	-10002
▁ekiplerinden	-10003
yay	-10004
▁işini	-10005
▁konyaspor	-10006
alarındaki	-10007
kül	-10008
▁millete	-10009
▁grubunda	-10010
▁hamza	-10011
▁devlete	-10012
tıp	-10013
▁deh	-10014
▁direksiyon	-10015
▁koya	-10016
▁george	-10017
▁duyulan	-10018
▁yoksulluk	-10019
▁nüfusun	-10020
▁sonradan	-10021
▁sektörde	-10022
▁başlamıştı	-10023
▁işlev	-10024
▁buluşan	-10025
ordu	-10026
▁gökçe	-10027
▁askerin	-10028
▁kuruluşlarının	-10029
▁kıla	-10030
▁ağa	-10031
▁verip	-10032
▁nüfusu	-10033
sizin	-10034
▁ohal	-10035
lerinizi	-10036
▁dostluk	-10037
▁dk	-10038
halde	-10039
lerse	-10040
▁faaliyetlerine	-10041
▁romanya	-10042
▁bölü	-10043
▁cal	-10044
▁çeliş	-10045
▁çiftin	-10046
▁yatırımları	-10047
güven	-10048
▁ekonomiye	-10049
▁desteklemek	-10050
▁melek	-10051
▁gelmek	-10052
▁lojistik	-10053
ğimde	-10054
▁şükran	-10055
▁gizlilik	-10056
▁tarafta	-10057
▁zev	-10058
▁olgun	-10059
▁ros	-10060
▁binin	-10061
▁kaşıkçı	-10062
▁ebu	-10063
▁we	-10064
▁maçının	-10065
hel	-10066
▁by	-10067
▁gelebilir	-10068
cileri	-10069
los	-10070
▁kesi	-10071
▁ekipman	-10072
▁grupları	-10073
▁kâ	-10074
▁geliştirilmesi	-10075
▁bilal	-10076
▁rapora	-10077
▁bölgeyi	-10078
lamalı	-10079
i̇le	-10080
rarı	-10081
▁istemiş	-10082
▁muhafaza	-10083
▁alınıyor	-10084
▁lehine	-10085
▁öldüren	-10086
üfer	-10087
▁hükmet	-10088
▁tehlikesi	-10089
▁bulunmadığı	-10090
▁rüşvet	-10091
▁görüşmelerin	-10092
▁duyuyoruz	-10093
▁talih	-10094
▁öğretmeni	-10095
▁eleştiren	-10096
▁evrensel	-10097
▁kötüye	-10098
yınca	-10099
▁i̇ddianamede	-10100
6)	-10101
▁altan	-10102
▁kalkış	-10103
▁varank	-10104
amam	-10105
▁mensubu	-10106
▁ideal	-10107
▁adımı	-10108
▁nasil	-10109
▁yargılandığı	-10110
▁firması	-10111
▁musk	-10112
gov	-10113
▁öp	-10114
pkk	-10115
▁sanatçısı	-10116
▁baştan	-10117
▁gelmiştir	-10118
▁akhisar	-10119
▁şimdilik	-10120
▁kopar	-10121
▁projesinin	-10122
▁bakalım	-10123
▁i̇skender	-10124
▁ödülünü	-10125
sayın	-10126
▁etkiledi	-10127
▁başaran	-10128
▁angela	-10129
ph	-10130
▁kapanış	-10131
▁1-	-10132
▁bülten	-10133
▁kullanmaya	-10134
▁vermeden	-10135
▁2-0	-10136
▁başarısı	-10137
▁donanım	-10138
▁hua	-10139
▁hikayesi	-10140
lıyorum	-10141
▁yazısında	-10142
▁özgün	-10143
▁aydan	-10144
▁1-1	-10145
▁örgü	-10146
ilmeli	-10147
▁okulun	-10148
aka	-10149
i̇ad	-10150
▁abdur	-10151
▁beklenti	-10152
▁çocuğa	-10153
▁konulu	-10154
barek	-10155
▁yürüyüşü	-10156
▁bakıyor	-10157
▁çarpış	-10158
▁tıklayın	-10159
▁eğitimin	-10160
▁kısmen	-10161
▁fur	-10162
▁alanyaspor	-10163
▁dünyasında	-10164
▁ihanet	-10165
▁taraftarlar	-10166
▁kadrosuna	-10167
▁71	-10168
ncı	-10169
▁fonk	-10170
▁divan	-10171
▁180	-10172
▁golle	-10173
▁1000	-10174
▁belirgin	-10175
▁9'	-10176
▁arınç	-10177
▁kişileri	-10178
▁alanındaki	-10179
▁toki̇	-10180
▁yanıtlayan	-10181
▁barındır	-10182
▁durumdan	-10183
▁puanı	-10184
▁benzin	-10185
▁işlemler	-10186
▁ebev	-10187
▁ihlali	-10188
▁mensupları	-10189
▁konuşmak	-10190
▁politikacı	-10191
▁niha	-10192
bilen	-10193
▁verilmiş	-10194
▁sada	-10195
▁gününe	-10196
▁kapatıldı	-10197
cular	-10198
▁ekibin	-10199
▁savunu	-10200
▁ayın	-10201
▁imf	-10202
▁arttığı	-10203
▁birileri	-10204
küdar	-10205
kish	-10206
aspor	-10207
taraf	-10208
▁kazakistan	-10209
yık	-10210
▁istemiyorum	-10211
▁mütal	-10212
▁zorlan	-10213
▁azaltmak	-10214
▁hedefliyoruz	-10215
▁hukuku	-10216
▁tartışmaya	-10217
▁iddiaya	-10218
likler	-10219
▁bağlamda	-10220
▁yakalanması	-10221
▁rehabil	-10222
▁kendilerinin	-10223
▁tatili	-10224
▁şahsın	-10225
▁haberin	-10226
▁milyonu	-10227
▁ekme	-10228
▁kıv	-10229
▁hesabını	-10230
▁hülya	-10231
▁çalışacak	-10232
meyin	-10233
▁müft	-10234
larınızı	-10235
▁89	-10236
▁karşılaştı	-10237
▁şehirler	-10238
ahmet	-10239
▁kente	-10240
▁önlen	-10241
▁içerisindeki	-10242
▁ret	-10243
8)	-10244
uvarı	-10245
▁ekrana	-10246
▁kendimizi	-10247
▁ihtiyaçları	-10248
▁tarihten	-10249
▁merdiven	-10250
-15	-10251
▁çıkarma	-10252
livan	-10253
▁birinde	-10254
▁kırım	-10255
▁paranın	-10256
▁vitamini	-10257
eğiyle	-10258
▁yayında	-10259
▁yeğ	-10260
hiç	-10261
▁belirlenmesi	-10262
▁nihai	-10263
lamıştı	-10264
▁fedakar	-10265
▁görüşmesi	-10266
▁üzüntü	-10267
▁magaz	-10268
▁nem	-10269
▁çalışıyorlar	-10270
▁düzenlemeler	-10271
▁ök	-10272
▁horm	-10273
▁baykal	-10274
▁yayılan	-10275
▁pik	-10276
!"	-10277
▁arayarak	-10278
anız	-10279
▁finan	-10280
▁taburcu	-10281
▁izleme	-10282
▁uyguladığı	-10283
▁köşe	-10284
▁kolom	-10285
▁fiyatlarının	-10286
▁yaptığım	-10287
▁trend	-10288
▁çoğunlukla	-10289
▁satıcı	-10290
▁arıyor	-10291
▁pişir	-10292
▁kazası	-10293
▁topladı	-10294
▁sıklıkla	-10295
▁köse	-10296
▁taleplerini	-10297
▁oyuncuların	-10298
▁olmamız	-10299
▁müdahalesi	-10300
▁yönetmelik	-10301
demokr	-10302
▁düzensiz	-10303
▁başkanlığını	-10304
▁cevabını	-10305
-10	-10306
eğine	-10307
▁organik	-10308
güz	-10309
şey	-10310
▁nilüfer	-10311
çal	-10312
▁provok	-10313
▁bulunmadığını	-10314
▁planda	-10315
▁mid	-10316
▁boşanma	-10317
▁tansiyon	-10318
▁13.	-10319
▁bebeğin	-10320
▁genetik	-10321
▁burhan	-10322
▁düzel	-10323
▁kandil	-10324
▁almadan	-10325
▁hedefleri	-10326
▁uğradı	-10327
▁tahvil	-10328
▁akademisi	-10329
▁kazasında	-10330
i̇li̇r	-10331
yolu	-10332
▁ihtiyacını	-10333
the	-10334
▁aksaray	-10335
'.	-10336
▁sıkıntılar	-10337
▁siyasetin	-10338
lerimi	-10339
▁gazetecilik	-10340
▁dergisi	-10341
▁doların	-10342
▁şükrü	-10343
▁imalat	-10344
yeşil	-10345
▁oksi	-10346
▁pomp	-10347
alman	-10348
▁anlamak	-10349
▁suçlamasıyla	-10350
▁köklü	-10351
▁yazısı	-10352
▁sonda	-10353
▁sindir	-10354
lareli	-10355
ığı	-10356
▁uzlaşma	-10357
▁çevrim	-10358
▁programları	-10359
▁dalga	-10360
▁tersine	-10361
▁alındığında	-10362
aseb	-10363
▁yılların	-10364
▁yaşta	-10365
▁duyuruldu	-10366
bi̇r	-10367
▁milyondan	-10368
▁biliyorsunuz	-10369
▁programın	-10370
▁yaral	-10371
▁bulacak	-10372
▁yorumları	-10373
▁willi	-10374
▁karakol	-10375
▁konfor	-10376
▁wor	-10377
▁konuştuk	-10378
osunda	-10379
cük	-10380
▁kapattı	-10381
▁kasımpaşa	-10382
▁annem	-10383
▁erbil	-10384
▁sayan	-10385
amı	-10386
▁tcmb	-10387
▁aşam	-10388
▁olmayacağını	-10389
▁olmalıdır	-10390
▁strateji	-10391
etli	-10392
▁350	-10393
▁aramada	-10394
▁kesildi	-10395
▁esra	-10396
▁kpss	-10397
▁kısmında	-10398
ere	-10399
▁meşin	-10400
▁halihazırda	-10401
▁şiddetin	-10402
▁üçün	-10403
▁mensuplarına	-10404
▁tavuk	-10405
▁etmez	-10406
▁saman	-10407
▁depremde	-10408
▁olumsuzluk	-10409
ceği	-10410
mede	-10411
▁huawei	-10412
▁halindeki	-10413
▁araca	-10414
▁yapacağını	-10415
bun	-10416
▁sağlığına	-10417
▁seviyorum	-10418
▁nakil	-10419
kları	-10420
▁kaçınılmaz	-10421
▁sonsuz	-10422
▁bilimleri	-10423
▁ambar	-10424
▁idare	-10425
▁97	-10426
▁cün	-10427
▁kullanmıştı	-10428
▁gib	-10429
▁menaj	-10430
▁ufuk	-10431
▁krem	-10432
▁inceledi	-10433
▁bırakmak	-10434
▁müziği	-10435
▁kimler	-10436
▁sabancı	-10437
siyas	-10438
▁unvan	-10439
▁onlardan	-10440
▁sözlerle	-10441
obi	-10442
▁işçilerin	-10443
▁vadisi	-10444
▁arkadaşım	-10445
▁herhalde	-10446
▁sayfa	-10447
▁kendisiyle	-10448
▁aralıksız	-10449
▁merkeze	-10450
▁projede	-10451
ruz	-10452
▁firmanın	-10453
▁ilerleme	-10454
▁şaşkın	-10455
▁çaplı	-10456
nca	-10457
▁sorusunu	-10458
▁inanılmaz	-10459
▁katkısı	-10460
▁ilçelerinde	-10461
▁topal	-10462
▁gelmedi	-10463
▁fikret	-10464
▁haydar	-10465
▁bırakıp	-10466
▁görmüş	-10467
▁birlikt	-10468
▁tarafsız	-10469
▁istedikleri	-10470
▁büyükelçi	-10471
emem	-10472
▁karşıyaka	-10473
▁sınırında	-10474
▁istemiyoruz	-10475
▁üçte	-10476
▁hatice	-10477
▁komis	-10478
▁bilgin	-10479
▁yılki	-10480
gelen	-10481
▁anları	-10482
▁personelin	-10483
▁bacak	-10484
▁gaziler	-10485
▁konf	-10486
▁reak	-10487
▁evrak	-10488
▁düzgün	-10489
cia	-10490
▁eşini	-10491
fli	-10492
▁bozdağ	-10493
▁nereli	-10494
▁tiyatrosu	-10495
▁seviyesi	-10496
batı	-10497
▁görüşünde	-10498
▁söyleş	-10499
lon	-10500
▁harekâ	-10501
üsten	-10502
▁çeyreğinde	-10503
▁teyit	-10504
▁amaçla	-10505
▁söylediler	-10506
▁sep	-10507
▁harcama	-10508
▁fey	-10509
▁saldırıların	-10510
7)	-10511
▁halep	-10512
vas	-10513
▁pratik	-10514
▁üsküdar	-10515
▁sağlanacak	-10516
▁edilmesinin	-10517
▁hele	-10518
▁bulundukları	-10519
meyeceğini	-10520
▁asır	-10521
▁estetik	-10522
▁istemeyen	-10523
▁görüşmelerde	-10524
▁casus	-10525
▁kazanın	-10526
fil	-10527
▁biyograf	-10528
▁zer	-10529
▁konuşmaların	-10530
▁okudu	-10531
▁sevindir	-10532
adam	-10533
▁rom	-10534
▁konul	-10535
▁ülkesinde	-10536
▁santim	-10537
▁alanların	-10538
▁kandır	-10539
▁memleketi	-10540
▁coğrafi	-10541
▁müsaade	-10542
▁görüşünü	-10543
▁milletimiz	-10544
▁gasp	-10545
▁tamir	-10546
▁mevduat	-10547
▁söylemiş	-10548
▁kamuoyunun	-10549
▁soruşturmanın	-10550
▁gelirken	-10551
▁mübarek	-10552
lıkların	-10553
▁ord	-10554
▁tokyo	-10555
▁yönettiği	-10556
▁sendikası	-10557
▁12'	-10558
▁fırtın	-10559
▁saygın	-10560
▁anayasal	-10561
▁söyledik	-10562
▁fakir	-10563
▁balkon	-10564
▁doğumlu	-10565
tok	-10566
▁bırakma	-10567
▁gelmeye	-10568
▁sera	-10569
tırken	-10570
ümüze	-10571
▁girip	-10572
▁ki̇ş	-10573
▁dönmek	-10574
▁açığı	-10575
▁i̇nönü	-10576
▁bla	-10577
emedik	-10578
▁amas	-10579
görün	-10580
▁istiyorlar	-10581
▁girmiş	-10582
▁söyler	-10583
▁zeh	-10584
▁enflasyonun	-10585
▁peyn	-10586
tw	-10587
emediği	-10588
▁piyade	-10589
▁düşünen	-10590
yarak	-10591
tag	-10592
▁küfür	-10593
▁uşak	-10594
▁etkiley	-10595
akal	-10596
▁yerlerinde	-10597
▁medyanın	-10598
▁sırala	-10599
▁hapishan	-10600
osunun	-10601
▁hong	-10602
▁oyuncak	-10603
▁başvurdu	-10604
▁i̇şletme	-10605
▁bulunmuyor	-10606
▁mağlub	-10607
▁öngören	-10608
ilmesiyle	-10609
▁muhtarı	-10610
muh	-10611
▁konularında	-10612
▁brit	-10613
.7	-10614
▁izlemek	-10615
liydi	-10616
rov	-10617
▁2003	-10618
▁ünit	-10619
▁seçimin	-10620
▁korumaya	-10621
▁yök	-10622
ift	-10623
▁imzaladı	-10624
evre	-10625
entop	-10626
▁alınırken	-10627
▁politikasını	-10628
▁dönümü	-10629
▁otelde	-10630
▁başkons	-10631
▁nakit	-10632
ardi	-10633
▁samsung	-10634
▁tutanak	-10635
▁lam	-10636
▁tutulan	-10637
mayacağı	-10638
i̇st	-10639
▁bildiren	-10640
▁fragmanı	-10641
▁çağırdı	-10642
▁biridir	-10643
amıza	-10644
▁görünen	-10645
▁dolandırıcılık	-10646
▁içeride	-10647
▁düştüğünü	-10648
▁üreticisi	-10649
▁randevu	-10650
▁cesur	-10651
▁paydaş	-10652
şimdi	-10653
▁kızının	-10654
nce	-10655
▁atıf	-10656
▁önerg	-10657
▁şartı	-10658
▁bozkurt	-10659
ğunuz	-10660
oç	-10661
▁katal	-10662
amadığı	-10663
▁yozgat	-10664
▁direkt	-10665
lamıyor	-10666
▁tahsil	-10667
ptom	-10668
▁yetkisi	-10669
▁oluyoruz	-10670
eliyiz	-10671
▁şut	-10672
▁termik	-10673
▁yorumu	-10674
doğdu	-10675
▁şentop	-10676
▁bakanları	-10677
▁okuy	-10678
teyner	-10679
▁işveren	-10680
▁mantık	-10681
▁aşılan	-10682
▁çağrıda	-10683
▁94	-10684
▁girişiminin	-10685
▁sıraya	-10686
kız	-10687
▁gelmez	-10688
▁taşıdığı	-10689
distan	-10690
teyiz	-10691
▁tablet	-10692
▁birbirlerine	-10693
▁içerisine	-10694
▁dönmez	-10695
▁tüketimi	-10696
▁berber	-10697
▁bakırköy	-10698
▁haklarının	-10699
▁yağlı	-10700
▁yansıyan	-10701
▁sinop	-10702
inler	-10703
guluyor	-10704
genç	-10705
▁zırhlı	-10706
▁bombalı	-10707
▁görüle	-10708
▁tehdidi	-10709
-9	-10710
▁bayern	-10711
▁demokrasinin	-10712
▁turkcell	-10713
▁gürk	-10714
uru	-10715
▁mutluyum	-10716
▁isteniyor	-10717
▁kaybeder	-10718
▁siyasetçi	-10719
▁çankaya	-10720
▁üyeler	-10721
▁ertesi	-10722
▁çalışmayı	-10723
▁anıms	-10724
▁zirvede	-10725
▁kontrollü	-10726
▁tarafların	-10727
▁ecz	-10728
▁tik	-10729
▁şerif	-10730
larımızdan	-10731
eciler	-10732
▁yapılandır	-10733
▁i̇statistik	-10734
enko	-10735
konu	-10736
▁amazon	-10737
▁oluşturul	-10738
▁egemenlik	-10739
▁açıklanacak	-10740
emeye	-10741
▁yenik	-10742
▁yapıyorum	-10743
▁görüntüsü	-10744
▁yeşiller	-10745
▁eksi	-10746
▁nelerdir	-10747
▁yüzünü	-10748
▁koku	-10749
▁grip	-10750
mi̇ş	-10751
▁kitabın	-10752
▁merve	-10753
▁96	-10754
▁izn	-10755
leyiş	-10756
▁şikâ	-10757
▁karaciğer	-10758
▁kaldık	-10759
▁olurdu	-10760
▁matematik	-10761
eff	-10762
▁büyükelçiliği	-10763
▁liderleri	-10764
▁kullanımına	-10765
▁etkileş	-10766
▁biyolojik	-10767
▁karşılaşmada	-10768
▁ilişkilerini	-10769
▁tarzı	-10770
▁konuşulan	-10771
▁yaya	-10772
landalı	-10773
indan	-10774
▁içki	-10775
▁semptom	-10776
▁mağduriyet	-10777
▁yaşına	-10778
!.	-10779
▁belgeleri	-10780
▁konteyner	-10781
▁jet	-10782
▁hayli	-10783
▁adamları	-10784
▁medipol	-10785
▁etkinliğe	-10786
▁sunuldu	-10787
▁bulunacak	-10788
▁anılan	-10789
▁türkler	-10790
▁maddeleri	-10791
▁yenilikçi	-10792
▁yoğ	-10793
▁leyla	-10794
▁güvenc	-10795
▁futbolcunun	-10796
▁i̇ncel	-10797
▁basınında	-10798
▁hazırlıklarını	-10799
▁başört	-10800
?.	-10801
▁kâr	-10802
▁sw	-10803
▁i̇slami	-10804
▁domates	-10805
-16	-10806
.9	-10807
sınlar	-10808
sır	-10809
▁olduktan	-10810
▁eserleri	-10811
▁suçlamalar	-10812
▁operasyonlar	-10813
tanı	-10814
▁bron	-10815
▁kasten	-10816
cal	-10817
▁kaldırıldığı	-10818
▁ortaklık	-10819
▁gelişmelerin	-10820
▁kiralık	-10821
▁devamında	-10822
▁danışmanlık	-10823
api	-10824
▁bam	-10825
▁tosun	-10826
▁osmaniye	-10827
▁haklarında	-10828
biya	-10829
▁cinayeti	-10830
▁ergenekon	-10831
▁aldır	-10832
▁aleyhine	-10833
▁talebini	-10834
▁yaklaşan	-10835
▁eti	-10836
▁şirketlerinin	-10837
▁karmaşık	-10838
▁azaldı	-10839
▁incelemede	-10840
▁bitcoin	-10841
▁çevresel	-10842
▁sgk	-10843
▁sırasıyla	-10844
▁fev	-10845
▁kuyruk	-10846
▁ebeveyn	-10847
▁birliğiyle	-10848
▁silivri	-10849
▁atama	-10850
▁şirketinin	-10851
▁kiev	-10852
▁sezer	-10853
▁kurtarıldı	-10854
▁nav	-10855
▁sonuçlara	-10856
▁devamı	-10857
▁şoförü	-10858
▁ediyordu	-10859
▁efes	-10860
▁mutf	-10861
▁sesini	-10862
▁tahrik	-10863
▁fiyatlar	-10864
▁isteği	-10865
beş	-10866
▁tenis	-10867
▁nark	-10868
▁ergin	-10869
▁esrar	-10870
▁ispat	-10871
ford	-10872
ınıp	-10873
▁seyirci	-10874
▁alınmıştı	-10875
▁numara	-10876
▁kapılarını	-10877
▁bilirkişi	-10878
▁önlenmesi	-10879
itasyon	-10880
eten	-10881
▁konse	-10882
▁i̇rfan	-10883
▁bulv	-10884
▁fail	-10885
▁kullanılacak	-10886
▁dayanış	-10887
▁çalışanlarına	-10888
▁tarla	-10889
list	-10890
▁araştırmaları	-10891
başka	-10892
▁beğeni	-10893
gür	-10894
▁atina	-10895
▁etmekte	-10896
▁mersi̇n	-10897
▁martin	-10898
▁fabrikası	-10899
ınarı	-10900
▁93	-10901
dis	-10902
alanan	-10903
şır	-10904
ders	-10905
▁ulaştığı	-10906
▁barışı	-10907
i̇ni̇	-10908
▁900	-10909
mıyoruz	-10910
▁güvence	-10911
antalya	-10912
▁yayımladı	-10913
▁yüzme	-10914
▁130	-10915
▁etmeyen	-10916
▁mesajlar	-10917
▁tutuklanarak	-10918
▁&	-10919
▁döneminin	-10920
▁reş	-10921
▁giyim	-10922
▁sürdüğünü	-10923
▁üretime	-10924
iliğe	-10925
i̇ran	-10926
▁silin	-10927
▁oynama	-10928
:2	-10929
▁cenk	-10930
wood	-10931
▁teşhis	-10932
▁doktorlar	-10933
▁mansur	-10934
▁siyaseti	-10935
zede	-10936
▁derb	-10937
suriye	-10938
▁endon	-10939
▁üzgün	-10940
▁çıkmaz	-10941
▁bilecik	-10942
▁etkiliyor	-10943
▁savaşa	-10944
▁kirlili	-10945
▁ziyarete	-10946
▁sıkıntısı	-10947
▁kılav	-10948
▁çıplak	-10949
▁atmak	-10950
▁seçilmiş	-10951
▁yapıcı	-10952
▁kazım	-10953
▁müraca	-10954
▁gönl	-10955
▁çağlayan	-10956
▁teknolojisi	-10957
▁senary	-10958
▁sosyalist	-10959
▁98	-10960
▁arıt	-10961
arda	-10962
▁merh	-10963
▁kaydedilen	-10964
▁sib	-10965
▁tatar	-10966
▁belirtilerek	-10967
▁erecek	-10968
▁tezgah	-10969
▁etapta	-10970
▁eylemleri	-10971
oft	-10972
▁yarışı	-10973
▁seçil	-10974
osuna	-10975
▁otomobili	-10976
i̇srail	-10977
ılmasıyla	-10978
ult	-10979
▁verdiler	-10980
”.	-10981
▁nob	-10982
▁vitamin	-10983
▁gördüğümüz	-10984
▁gösterir	-10985
lığından	-10986
▁sokaklarda	-10987
▁sular	-10988
▁üzünt	-10989
▁işleme	-10990
rut	-10991
▁geçit	-10992
▁mesajları	-10993
uzun	-10994
▁niğ	-10995
▁muc	-10996
▁çabuk	-10997
temiz	-10998
▁sofr	-10999
esti	-11000
▁kayg	-11001
▁kırklareli	-11002
▁hastanelere	-11003
1)	-11004
uc	-11005
▁yollarla	-11006
▁çalışmalarımız	-11007
çık	-11008
▁köyde	-11009
▁ergün	-11010
▁ikiye	-11011
-25	-11012
mann	-11013
▁bush	-11014
▁göreceğiz	-11015
▁cesed	-11016
i̇ldi̇	-11017
▁alkollü	-11018
▁tedir	-11019
▁erhan	-11020
▁anımsatan	-11021
▁rahatlıkla	-11022
▁binada	-11023
▁taşıya	-11024
▁ayrıntılı	-11025
▁mezunu	-11026
▁bırakılan	-11027
▁nitel	-11028
▁süm	-11029
ayi	-11030
▁devamını	-11031
▁mezarlığı	-11032
▁kavş	-11033
▁çifti	-11034
▁ilgilendiren	-11035
lının	-11036
▁ilkokul	-11037
utma	-11038
hiş	-11039
▁mühimmat	-11040
bullah	-11041
▁gezen	-11042
▁gi̇	-11043
▁çevreye	-11044
▁yaratıcı	-11045
▁kaydederek	-11046
▁show	-11047
▁öncülüğünde	-11048
▁rabb	-11049
▁liberal	-11050
▁filminin	-11051
▁ekolojik	-11052
▁yerin	-11053
▁sunulacak	-11054
▁stad	-11055
iyev	-11056
▁çalışır	-11057
▁kısıtlamalar	-11058
▁şüphe	-11059
▁piyasada	-11060
▁boyn	-11061
▁musul	-11062
▁çıkışı	-11063
▁tayf	-11064
▁beklediği	-11065
▁jean	-11066
▁eşim	-11067
▁ziyaretçi	-11068
kusuz	-11069
▁listede	-11070
iel	-11071
ny	-11072
▁ibaret	-11073
▁komün	-11074
▁artacak	-11075
▁kamerası	-11076
▁planlıyor	-11077
▁toplantısına	-11078
nur	-11079
▁pic	-11080
.6	-11081
▁niğde	-11082
▁belirtileri	-11083
▁gelmiyor	-11084
▁getirdik	-11085
▁sondaj	-11086
ılmalı	-11087
▁soruyu	-11088
▁fesh	-11089
▁açma	-11090
▁yapının	-11091
▁ülkelerinden	-11092
▁çalışmada	-11093
▁işg	-11094
▁ece	-11095
▁verilerin	-11096
▁trakya	-11097
▁kiraz	-11098
▁limit	-11099
▁cenevre	-11100
▁https	-11101
▁seg	-11102
▁senato	-11103
ahan	-11104
▁malzemeleri	-11105
▁dönüyor	-11106
kop	-11107
▁sonuçlarının	-11108
▁ini	-11109
▁ürünün	-11110
▁topluluğu	-11111
▁kaçakç	-11112
üsünde	-11113
▁kirli	-11114
yeri	-11115
▁direnç	-11116
▁yakalay	-11117
▁liderlik	-11118
pool	-11119
▁sanırım	-11120
▁kaybolan	-11121
ımdan	-11122
uyorlar	-11123
▁programının	-11124
▁ortamında	-11125
▁yürütme	-11126
▁bulunmayan	-11127
▁müslümanlar	-11128
nalı	-11129
▁üstlendiği	-11130
▁başvuruları	-11131
bunu	-11132
▁paylaşıldı	-11133
▁çukurova	-11134
▁muayene	-11135
▁bankaların	-11136
▁ermen	-11137
▁kısıtla	-11138
▁gencin	-11139
▁tedirgin	-11140
▁sağlanan	-11141
▁popü	-11142
▁güngör	-11143
▁aradı	-11144
▁magazin	-11145
▁alınmasını	-11146
▁etmenin	-11147
serv	-11148
▁haberlere	-11149
▁bağırsak	-11150
▁vereceğini	-11151
▁anton	-11152
▁bende	-11153
▁düşünür	-11154
▁kazanıyor	-11155
▁arkasından	-11156
▁açıklamasının	-11157
▁figür	-11158
▁nakli	-11159
▁merkezinin	-11160
▁iddialı	-11161
▁saptan	-11162
▁etkiler	-11163
▁yakalamak	-11164
inizde	-11165
▁tho	-11166
▁kadarı	-11167
▁maçını	-11168
▁denetleme	-11169
▁kavala	-11170
▁beklentisi	-11171
▁william	-11172
▁koordinatörü	-11173
3)	-11174
üsüne	-11175
▁eğlenceli	-11176
▁bağlayan	-11177
▁sancak	-11178
▁yaratmak	-11179
kov	-11180
▁hint	-11181
▁takib	-11182
▁sermay	-11183
▁sayısal	-11184
cağımız	-11185
▁açıklarında	-11186
▁örgütlerinin	-11187
▁aralı	-11188
▁durumlar	-11189
▁markası	-11190
▁3-	-11191
▁finalde	-11192
▁konuşmasının	-11193
veni	-11194
▁yama	-11195
▁ayağı	-11196
▁geleceğin	-11197
▁erdir	-11198
▁toy	-11199
▁barosu	-11200
▁diplomat	-11201
▁mühendislik	-11202
▁isimlerinden	-11203
▁görevliler	-11204
diğiniz	-11205
▁saatler	-11206
tikten	-11207
▁uygulamanın	-11208
▁anneler	-11209
gur	-11210
▁geçim	-11211
▁çalışacağız	-11212
▁yin	-11213
▁çalışıyorum	-11214
▁i̇c	-11215
▁hedefleniyor	-11216
▁tüi̇k	-11217
▁başvuruda	-11218
▁önceli	-11219
▁nöbetçi	-11220
▁yaşından	-11221
▁gündeminde	-11222
▁alay	-11223
▁sığınma	-11224
▁değerlendirmede	-11225
▁çocuklarda	-11226
▁planları	-11227
▁war	-11228
▁vermiyor	-11229
▁kanalda	-11230
▁kimseyi	-11231
▁tarihsel	-11232
ypg	-11233
▁kavgaya	-11234
▁yükümlülük	-11235
▁efendi	-11236
til	-11237
▁kırıl	-11238
▁bilinçli	-11239
▁tavr	-11240
▁doluluk	-11241
▁mahallesinde	-11242
mus	-11243
▁kodu	-11244
▁mahallede	-11245
▁askerleri	-11246
▁oldular	-11247
ikli	-11248
▁devi	-11249
▁günlerinde	-11250
▁osmangazi	-11251
▁endeks	-11252
▁buluşacak	-11253
▁yanından	-11254
▁harcan	-11255
▁kaçakçılık	-11256
▁uyu	-11257
▁kole	-11258
erdoğan	-11259
▁müfett	-11260
▁kesintisiz	-11261
▁kayıtlara	-11262
▁damga	-11263
▁eleman	-11264
40	-11265
▁takımlar	-11266
4)	-11267
▁25'	-11268
▁grubunun	-11269
▁haritası	-11270
▁fırın	-11271
▁fonksiyon	-11272
▁öyk	-11273
▁max	-11274
ehan	-11275
▁kahvaltı	-11276
▁ki̇mdi̇r	-11277
gue	-11278
hen	-11279
açık	-11280
kürt	-11281
▁aksa	-11282
▁okulları	-11283
▁değişikliğinin	-11284
rum	-11285
▁günah	-11286
▁çekiş	-11287
▁lek	-11288
ülmüş	-11289
▁arma	-11290
▁vasıt	-11291
▁şehidin	-11292
▁krizinin	-11293
▁karşılandı	-11294
dükten	-11295
▁yoğunluğu	-11296
lov	-11297
çası	-11298
▁çol	-11299
▁beklediklerini	-11300
▁2-3	-11301
▁uzmanları	-11302
▁döndür	-11303
▁müteahh	-11304
▁mücadelesini	-11305
▁sürüş	-11306
▁yakınlarına	-11307
▁bulvarı	-11308
▁başlayarak	-11309
▁kutu	-11310
kanın	-11311
▁nesli	-11312
▁öncesine	-11313
izmin	-11314
▁kontrolden	-11315
i̇f	-11316
▁vedat	-11317
▁ürettiği	-11318
▁uğrat	-11319
▁emrah	-11320
▁yerinin	-11321
▁resm	-11322
▁niteliğinde	-11323
▁yoğunlaş	-11324
▁yumruk	-11325
▁mesajını	-11326
▁soma	-11327
▁çıktık	-11328
enni	-11329
▁kadınlarda	-11330
▁otoyol	-11331
▁kanad	-11332
▁suçlar	-11333
▁özgürlüğ	-11334
▁asit	-11335
▁gazetecinin	-11336
▁cüneyt	-11337
▁seda	-11338
▁bireylerin	-11339
▁devral	-11340
▁ankaragücü	-11341
▁topçu	-11342
şap	-11343
▁traj	-11344
▁üretiminin	-11345
dö	-11346
▁talebiyle	-11347
▁şişli	-11348
üğü	-11349
▁ziyaretinde	-11350
-400	-11351
▁eserler	-11352
▁bırakın	-11353
▁ırkçı	-11354
▁köpeği	-11355
▁yakala	-11356
ary	-11357
▁çeşme	-11358
▁kaos	-11359
▁yöneten	-11360
▁inceleyen	-11361
lock	-11362
adası	-11363
▁acun	-11364
tın	-11365
tech	-11366
▁kurtu	-11367
▁yır	-11368
▁kuzeyindeki	-11369
▁peker	-11370
▁başlayıp	-11371
▁sandalye	-11372
cinin	-11373
▁kapıyı	-11374
▁dayanan	-11375
▁santrali	-11376
▁görüşmenin	-11377
▁poşet	-11378
böyle	-11379
▁açarak	-11380
▁başkanının	-11381
▁rakamlar	-11382
uf	-11383
▁çözümler	-11384
▁yaşananlar	-11385
haber	-11386
▁vi	-11387
▁rüy	-11388
▁sezonda	-11389
larus	-11390
▁taşkın	-11391
▁oyların	-11392
çelik	-11393
▁hepsinin	-11394
▁sağlamaya	-11395
▁umu	-11396
▁akla	-11397
▁işine	-11398
yüzde	-11399
▁öldüğünü	-11400
▁duyuru	-11401
ehlivan	-11402
▁atandı	-11403
▁kaybedenlerin	-11404
ld	-11405
▁eksikliği	-11406
▁gözde	-11407
▁yenilg	-11408
▁hayatlarını	-11409
▁isimlerden	-11410
▁kin	-11411
▁tabak	-11412
▁engellen	-11413
▁güçler	-11414
▁hastalıklar	-11415
ındır	-11416
i̇tak	-11417
▁kenarında	-11418
▁görüşmek	-11419
▁rizespor	-11420
cen	-11421
▁rastlan	-11422
▁kura	-11423
işehir	-11424
▁açıklamayı	-11425
▁askerlerinin	-11426
▁üyelerine	-11427
▁gitmiş	-11428
▁değişiyor	-11429
del	-11430
mp	-11431
▁çağlar	-11432
▁güldür	-11433
▁müthiş	-11434
▁kalmaya	-11435
▁müracaat	-11436
▁gökyüz	-11437
▁kazanacak	-11438
▁ailesiyle	-11439
▁dolardan	-11440
▁üreticiler	-11441
▁kaide	-11442
▁i̇şler	-11443
▁kentindeki	-11444
uklu	-11445
▁ilıcalı	-11446
▁öğrenilen	-11447
alarımız	-11448
▁haliyle	-11449
alardaki	-11450
▁asliye	-11451
▁duyuyorum	-11452
▁haftaya	-11453
▁om	-11454
▁firmaların	-11455
▁koşullarda	-11456
▁çarpıştı	-11457
latan	-11458
▁nasa	-11459
▁göv	-11460
başkan	-11461
▁kadrosunda	-11462
▁sop	-11463
▁çelen	-11464
▁ağac	-11465
▁alçak	-11466
özellikle	-11467
▁1999	-11468
▁çılgın	-11469
▁içe	-11470
▁plus	-11471
▁katına	-11472
▁kazanarak	-11473
▁beşinci	-11474
▁hazırladı	-11475
▁faaliyetlerinin	-11476
▁yenerek	-11477
▁araçla	-11478
▁başarıya	-11479
▁taner	-11480
covid	-11481
▁makinesi	-11482
▁endonezya	-11483
bür	-11484
▁toplayan	-11485
▁haberdar	-11486
▁imkansız	-11487
▁şehitler	-11488
▁şampiyonluğu	-11489
çam	-11490
▁yaptırımlar	-11491
▁çocuklarına	-11492
▁etmem	-11493
▁mütala	-11494
▁premier	-11495
▁bdp	-11496
▁bitk	-11497
▁koruya	-11498
▁stk	-11499
▁süresinin	-11500
▁kib	-11501
▁depolama	-11502
▁garip	-11503
▁seminer	-11504
▁heyecanlı	-11505
▁tutukluluk	-11506
▁deli	-11507
▁eğitimini	-11508
▁fox	-11509
▁aldılar	-11510
luğuna	-11511
▁minnet	-11512
▁çocuklarımızın	-11513
▁yasama	-11514
▁dayat	-11515
▁haberleşme	-11516
▁edilmek	-11517
▁bıraktığı	-11518
▁sizlere	-11519
cle	-11520
▁anlık	-11521
verpool	-11522
▁bae	-11523
▁hükümlü	-11524
▁çözüme	-11525
▁numarası	-11526
▁hizbullah	-11527
▁kek	-11528
▁kaybetmiş	-11529
▁sorunlara	-11530
▁etmeden	-11531
ticaret	-11532
▁tarsus	-11533
ulusi	-11534
kir	-11535
▁maked	-11536
▁boğazı	-11537
▁konten	-11538
▁torb	-11539
ozy	-11540
▁yayımladığı	-11541
imizdeki	-11542
▁hidro	-11543
imleri	-11544
▁dizide	-11545
▁şikâyet	-11546
kol	-11547
▁üzül	-11548
▁gözetim	-11549
▁sınırlandır	-11550
▁ölçüm	-11551
▁tartışmalı	-11552
▁yardımcıları	-11553
▁alandaki	-11554
▁bölgeleri	-11555
▁doğaya	-11556
erseniz	-11557
▁benzet	-11558
▁i̇nsanların	-11559
▁serisi	-11560
▁etmesine	-11561
▁ruhani	-11562
▁bulunur	-11563
▁yönetimin	-11564
▁serin	-11565
▁sing	-11566
▁durdu	-11567
▁branş	-11568
▁gerçekleştirdik	-11569
ace	-11570
▁etkilerini	-11571
▁yanıl	-11572
▁kaldırdı	-11573
▁nasip	-11574
▁elden	-11575
▁açılışını	-11576
▁doğrultu	-11577
▁110	-11578
▁birlikleri	-11579
▁görmeye	-11580
▁konsolos	-11581
▁türb	-11582
▁selçuklu	-11583
▁niş	-11584
▁tedbirlerin	-11585
▁başlatan	-11586
▁rehin	-11587
rey	-11588
▁sözleşmeli	-11589
tas	-11590
▁tasarımı	-11591
▁hulusi	-11592
▁gerekiyordu	-11593
▁rep	-11594
kılıç	-11595
▁çarşı	-11596
▁açacak	-11597
▁adrese	-11598
▁öğrenim	-11599
▁sağlandı	-11600
▁i̇b	-11601
▁harp	-11602
▁insansız	-11603
▁ortaokulu	-11604
".	-11605
▁uydur	-11606
▁morguna	-11607
▁bazında	-11608
une	-11609
▁2,	-11610
▁i̇laç	-11611
▁arta	-11612
▁başını	-11613
eçh	-11614
▁bölümünün	-11615
▁esnek	-11616
▁yanık	-11617
▁win	-11618
dıkça	-11619
▁deleg	-11620
▁eşsiz	-11621
▁şeria	-11622
▁maçına	-11623
▁etmesinin	-11624
▁göstericiler	-11625
.8	-11626
▁bitim	-11627
▁çekilmesi	-11628
▁talimatıyla	-11629
sb	-11630
▁(6	-11631
▁meme	-11632
▁belirtir	-11633
▁mahkemede	-11634
▁uludağ	-11635
▁bölücü	-11636
▁eşitlik	-11637
lacivertli	-11638
▁i̇stanbullu	-11639
▁tet	-11640
▁gökç	-11641
apur	-11642
▁onarım	-11643
▁militan	-11644
▁alacağız	-11645
▁deneyimi	-11646
▁çocukluk	-11647
▁sigortası	-11648
▁cumhuriyetçi	-11649
▁rüyada	-11650
▁göçmenlerin	-11651
▁mühendisliği	-11652
▁çözmek	-11653
lemeyi	-11654
▁çir	-11655
aleti	-11656
▁maaşı	-11657
▁olduğunuz	-11658
▁kurumun	-11659
▁yemeği	-11660
zani	-11661
▁yayla	-11662
▁saraç	-11663
▁turda	-11664
▁sezgin	-11665
▁03:00	-11666
▁zarf	-11667
▁gürkan	-11668
▁zeytinya	-11669
▁muhatap	-11670
▁yaman	-11671
tayı	-11672
▁yarışmacı	-11673
▁çaresiz	-11674
▁ferhat	-11675
▁yapılabilir	-11676
▁yılbaşı	-11677
opoli	-11678
▁şüphelen	-11679
▁bölgelere	-11680
yaklaş	-11681
sosyal	-11682
▁atanan	-11683
▁gelişmekte	-11684
▁kalıp	-11685
▁artışın	-11686
▁bırakılması	-11687
▁enver	-11688
▁salgınının	-11689
▁görmüyor	-11690
▁karşılamak	-11691
▁milis	-11692
milli	-11693
▁yürüyen	-11694
▁teröristler	-11695
▁lirayı	-11696
izde	-11697
▁gösterildi	-11698
▁haberimizde	-11699
kek	-11700
hayat	-11701
▁heyecanı	-11702
▁parasını	-11703
aldo	-11704
▁damg	-11705
▁adının	-11706
▁alanlara	-11707
▁esnada	-11708
▁hazırız	-11709
▁nezdinde	-11710
bahç	-11711
▁bozukluk	-11712
▁donat	-11713
▁almıştır	-11714
▁kalıntı	-11715
▁oynayacak	-11716
dalı	-11717
▁unesco	-11718
▁beklemek	-11719
▁gününü	-11720
▁sitesinden	-11721
artık	-11722
▁şunlar	-11723
▁gölg	-11724
▁nehir	-11725
▁sinem	-11726
▁franc	-11727
▁melih	-11728
▁hücum	-11729
▁tanıma	-11730
▁namazının	-11731
▁yapılırken	-11732
ily	-11733
ational	-11734
▁sonbahar	-11735
tis	-11736
▁kazayla	-11737
emeyiz	-11738
▁kararında	-11739
▁konuşmalar	-11740
▁edilmektedir	-11741
▁çayı	-11742
▁efsane	-11743
▁ifadesine	-11744
▁siyasete	-11745
▁yetkilisi	-11746
▁milletimize	-11747
▁oranını	-11748
▁ulaştığını	-11749
▁içecek	-11750
▁almasını	-11751
▁erkeklerin	-11752
▁doğrusu	-11753
▁ziyaretç	-11754
▁kelime	-11755
ise	-11756
▁kişiyle	-11757
tatör	-11758
▁tahrip	-11759
▁tahir	-11760
▁protein	-11761
▁çatışmaların	-11762
ğince	-11763
▁sorununu	-11764
16	-11765
mışlar	-11766
▁anahtar	-11767
▁enflasyonu	-11768
heim	-11769
▁illerde	-11770
▁devred	-11771
▁temenni	-11772
leşmesi	-11773
▁katında	-11774
yek	-11775
irse	-11776
▁cüz	-11777
▁veysel	-11778
▁kuşadası	-11779
▁belirsizlik	-11780
sea	-11781
▁marat	-11782
▁kapasitesi	-11783
▁i̇zmit	-11784
▁karşılaya	-11785
bütün	-11786
▁filmleri	-11787
▁metrelik	-11788
▁temelinde	-11789
▁tugay	-11790
▁lgb	-11791
usal	-11792
▁graf	-11793
ansa	-11794
▁merkezde	-11795
▁va	-11796
▁hücre	-11797
▁bakmak	-11798
▁fotoğraflar	-11799
ilmelidir	-11800
▁yargıla	-11801
eydi	-11802
▁ailelerine	-11803
▁geliştirdiği	-11804
olik	-11805
▁belarus	-11806
▁kutlama	-11807
▁görüşlerini	-11808
▁değerinde	-11809
ladığımız	-11810
▁pınarı	-11811
▁tuna	-11812
▁çatısı	-11813
▁sesleri	-11814
▁sporcular	-11815
▁operasyonlarda	-11816
▁kullanılarak	-11817
▁kullanıcıların	-11818
▁hakkına	-11819
▁yerleştirme	-11820
▁kuyu	-11821
▁uygur	-11822
▁katled	-11823
▁havalandır	-11824
▁sakın	-11825
▁taşıt	-11826
▁kullanımının	-11827
▁ölüme	-11828
dol	-11829
▁deneyimli	-11830
▁canan	-11831
▁muhafız	-11832
▁ga	-11833
▁sandığ	-11834
millet	-11835
▁kaybetmişti	-11836
▁oynat	-11837
imler	-11838
▁tesli	-11839
yr	-11840
twitter	-11841
▁yürütüyor	-11842
▁aykut	-11843
▁sunacak	-11844
▁gösterisi	-11845
▁kurultay	-11846
▁nüfusunun	-11847
▁deği̇l	-11848
▁raporuna	-11849
▁bilimler	-11850
▁gazetesinde	-11851
▁sunmak	-11852
▁iddianame	-11853
▁girişiminde	-11854
zir	-11855
▁2001	-11856
▁ahşap	-11857
▁filiz	-11858
▁rehabilitasyon	-11859
▁fazlasını	-11860
▁şov	-11861
▁caner	-11862
ovasyon	-11863
▁çarş	-11864
▁kirlet	-11865
▁çelebi	-11866
▁kump	-11867
liğimizi	-11868
ward	-11869
emeyeceğini	-11870
▁kürtler	-11871
▁hadis	-11872
adüf	-11873
yaklaşık	-11874
▁arındır	-11875
▁kuraklık	-11876
▁önleme	-11877
▁yitiren	-11878
tılacak	-11879
miyorum	-11880
▁tüb	-11881
tınız	-11882
▁yayınları	-11883
ğiyle	-11884
▁muhtaç	-11885
▁gösterg	-11886
▁sürücüsünün	-11887
▁16.	-11888
▁narkotik	-11889
tüel	-11890
▁okut	-11891
▁kentteki	-11892
▁sonuçlan	-11893
▁ülkesine	-11894
▁çalıştım	-11895
▁karais	-11896
▁öneme	-11897
▁oluşturulması	-11898
▁phil	-11899
rop	-11900
▁kepez	-11901
▁yapanlar	-11902
▁şekillendir	-11903
flix	-11904
▁yaprak	-11905
▁ümran	-11906
▁karşıladı	-11907
▁taze	-11908
lerimizden	-11909
▁oksijen	-11910
▁işletmec	-11911
▁anlatarak	-11912
▁vermeyi	-11913
▁salonda	-11914
▁saldırısına	-11915
▁kademeli	-11916
▁bürosu	-11917
▁3-4	-11918
▁nevşehir	-11919
▁konusunu	-11920
iştir	-11921
▁amc	-11922
▁sırp	-11923
▁bariyer	-11924
▁dahilinde	-11925
▁ersin	-11926
▁zelanda	-11927
''	-11928
▁liverpool	-11929
▁kararlılıkla	-11930
www	-11931
▁elma	-11932
aşehir	-11933
▁harf	-11934
▁gereğ	-11935
▁kürdistan	-11936
▁emirlikleri	-11937
eksiyonu	-11938
▁otoyolu	-11939
▁kime	-11940
▁ilçeye	-11941
▁çip	-11942
▁ürünlerinin	-11943
▁kamerasına	-11944
▁reç	-11945
▁damla	-11946
▁aracına	-11947
▁devrildi	-11948
fot	-11949
▁söndürme	-11950
▁çaykur	-11951
▁kocaman	-11952
▁sahnede	-11953
▁ekonomide	-11954
▁sunuluyor	-11955
hard	-11956
▁satışları	-11957
▁hib	-11958
▁gitmesi	-11959
▁suçları	-11960
▁tutulması	-11961
je	-11962
▁dink	-11963
▁takipçisi	-11964
▁kesint	-11965
bede	-11966
▁burayı	-11967
▁göstermesi	-11968
▁alanlarının	-11969
amıyoruz	-11970
▁havaalan	-11971
▁edeceğim	-11972
gir	-11973
▁keçi	-11974
böl	-11975
▁kullanıcılar	-11976
▁vazgeçilmez	-11977
▁kulüpler	-11978
▁190	-11979
yem	-11980
▁hedefleyen	-11981
▁işareti	-11982
▁yks	-11983
▁benimle	-11984
▁çalışmalarımızı	-11985
▁ikil	-11986
▁boşluk	-11987
▁harun	-11988
neden	-11989
▁görüştük	-11990
▁arkadaşlarının	-11991
▁binaların	-11992
▁yüzyılın	-11993
▁girdiğini	-11994
▁artı	-11995
atür	-11996
▁değişimi	-11997
dunuz	-11998
▁kıta	-11999
▁doktorların	-12000
que	-12001
▁los	-12002
▁neyse	-12003
▁tedavisinin	-12004
leşti	-12005
▁yanan	-12006
▁hakkının	-12007
▁dna	-12008
▁bonserv	-12009
▁yazıda	-12010
▁yapılmak	-12011
▁hukukçu	-12012
▁merkezindeki	-12013
sö	-12014
▁cav	-12015
▁etsin	-12016
ülem	-12017
üç	-12018
▁seren	-12019
▁saklıdır	-12020
▁karşılaşacak	-12021
▁reel	-12022
vili	-12023
▁zihinsel	-12024
▁listesine	-12025
çeği	-12026
dükleri	-12027
▁malatyaspor	-12028
▁maddeler	-12029
▁alınıp	-12030
lie	-12031
▁çocuklarımız	-12032
▁şüphelilerden	-12033
▁gro	-12034
▁faaliyete	-12035
▁i̇srailli	-12036
▁karakteri	-12037
▁kand	-12038
▁muammer	-12039
▁i̇mparator	-12040
▁genelindeki	-12041
▁tartışmaları	-12042
▁lar	-12043
▁dışarıya	-12044
▁kuşat	-12045
▁doğrultuda	-12046
atıyla	-12047
▁üniversiteler	-12048
▁barzani	-12049
▁manzar	-12050
▁çama	-12051
▁dâ	-12052
cağının	-12053
iliğini	-12054
▁aks	-12055
▁bartın	-12056
▁kdv	-12057
▁2009'	-12058
▁bürün	-12059
▁oğuzhan	-12060
▁kirliliği	-12061
▁manşet	-12062
▁binasında	-12063
▁kafe	-12064
▁günay	-12065
yad	-12066
▁bahsed	-12067
▁derdi	-12068
▁vuruşunda	-12069
▁arkasına	-12070
▁yılındaki	-12071
▁barışçıl	-12072
şah	-12073
▁stady	-12074
▁2010'	-12075
▁mater	-12076
▁nov	-12077
▁değerler	-12078
turkish	-12079
▁oscar	-12080
gn	-12081
▁kızım	-12082
▁getirdiğini	-12083
ştır	-12084
▁afp	-12085
▁bırakarak	-12086
herkes	-12087
▁merm	-12088
▁mantar	-12089
iliğinden	-12090
▁zorunluluğu	-12091
▁cay	-12092
▁bahçe	-12093
▁patates	-12094
▁gönderme	-12095
▁fenom	-12096
▁edileceğini	-12097
▁ayrımcılık	-12098
▁motivasyon	-12099
▁almaktadır	-12100
▁turistlerin	-12101
▁tesadüf	-12102
▁eşya	-12103
▁sisteminde	-12104
ısız	-12105
▁mazlum	-12106
eski	-12107
▁birimleri	-12108
kr	-12109
▁görmezden	-12110
▁çolak	-12111
▁tribün	-12112
▁sunul	-12113
▁araçtan	-12114
▁kadrosu	-12115
▁14.	-12116
▁bordo	-12117
rahman	-12118
▁sorununun	-12119
▁devletinin	-12120
▁750	-12121
▁misiniz	-12122
▁verin	-12123
▁beh	-12124
▁yetim	-12125
▁kesimi	-12126
▁khk	-12127
▁partiye	-12128
▁hasat	-12129
▁akan	-12130
▁bakter	-12131
▁varken	-12132
▁gab	-12133
▁öks	-12134
▁hayali	-12135
▁ateşe	-12136
ranı	-12137
▁azalma	-12138
▁dönmesi	-12139
▁haksızlık	-12140
pazarı	-12141
ansu	-12142
▁taşıdığını	-12143
alandı	-12144
gla	-12145
▁atam	-12146
▁tot	-12147
▁polislerin	-12148
▁hormon	-12149
▁i̇p	-12150
▁aldat	-12151
▁gündemi	-12152
edi̇	-12153
isti	-12154
▁bedeni	-12155
▁inc	-12156
▁etmemiz	-12157
▁mevkiinde	-12158
▁maçları	-12159
▁borçlu	-12160
▁imaj	-12161
ılmaması	-12162
▁wat	-12163
▁forması	-12164
▁aştı	-12165
▁kayın	-12166
▁yazıyor	-12167
kadir	-12168
▁özdil	-12169
▁tahıl	-12170
▁tutarı	-12171
▁okumak	-12172
▁destekleme	-12173
şan	-12174
lıoğlu	-12175
▁müslümanların	-12176
i̇si̇	-12177
▁keyf	-12178
▁karadağ	-12179
▁söyleniyor	-12180
ğünüz	-12181
▁ağab	-12182
▁i̇fade	-12183
▁peynir	-12184
▁genelg	-12185
▁davaya	-12186
▁tıkan	-12187
▁düğ	-12188
faiy	-12189
▁sabaha	-12190
▁tepkisini	-12191
▁öğrendim	-12192
▁kalite	-12193
▁kolayca	-12194
▁kolon	-12195
iğinin	-12196
▁yaşamın	-12197
erler	-12198
▁pc	-12199
eto	-12200
▁sürerek	-12201
▁paylaşılan	-12202
▁eks	-12203
▁defned	-12204
▁operasyonun	-12205
▁adresi	-12206
emiyorum	-12207
▁ömr	-12208
▁ulaşıma	-12209
▁macer	-12210
▁öksür	-12211
salar	-12212
▁bankanın	-12213
▁nör	-12214
▁taviz	-12215
▁iflas	-12216
▁ilişkilerinin	-12217
▁edileceği	-12218
▁rız	-12219
bana	-12220
▁gelmesini	-12221
▁kasapoğlu	-12222
▁esed	-12223
▁gençleri	-12224
▁netflix	-12225
▁bulur	-12226
▁çifte	-12227
▁gezegen	-12228
▁sergisi	-12229
▁özal	-12230
▁bakımdan	-12231
▁mühendisi	-12232
▁taktik	-12233
▁örgüte	-12234
▁furkan	-12235
▁komutanlığ	-12236
▁belirlenemeyen	-12237
▁başlığı	-12238
▁evvel	-12239
▁artıran	-12240
▁müteahhit	-12241
▁mirası	-12242
rant	-12243
çıların	-12244
▁i̇şlem	-12245
▁yapmamız	-12246
sade	-12247
caya	-12248
aktif	-12249
▁eng	-12250
▁havanın	-12251
▁görüşü	-12252
▁bulunmuş	-12253
▁sanayic	-12254
▁kayda	-12255
▁türkü	-12256
▁ederse	-12257
▁arabulu	-12258
▁girişinde	-12259
▁kalarak	-12260
▁olanlara	-12261
▁20.	-12262
▁gösteriler	-12263
▁tartışmanın	-12264
ancak	-12265
▁karşılığını	-12266
▁eliyle	-12267
▁mücadelesinde	-12268
,"	-12269
zade	-12270
▁akıncı	-12271
güm	-12272
▁i̇lkokulu	-12273
tro	-12274
lana	-12275
▁kraliyet	-12276
lenecek	-12277
▁üretiminde	-12278
ilmeleri	-12279
▁micros	-12280
▁vatandaşa	-12281
▁duruşu	-12282
▁tuncay	-12283
▁yaşı	-12284
▁kralı	-12285
▁koban	-12286
▁koymak	-12287
▁dediğini	-12288
asın	-12289
▁hızı	-12290
▁ölümcül	-12291
▁i̇lker	-12292
▁jon	-12293
▁alab	-12294
▁piyango	-12295
▁koronavirüse	-12296
▁aşağıdaki	-12297
▁taht	-12298
▁kavuştu	-12299
▁aksak	-12300
▁değiştirmek	-12301
yön	-12302
▁nedenlerle	-12303
▁potansiyeli	-12304
▁erbakan	-12305
▁haklarına	-12306
▁bağımlı	-12307
▁indirimi	-12308
▁mesajında	-12309
▁bilgilerin	-12310
▁şekli	-12311
▁ısınma	-12312
▁arkadan	-12313
▁hastalığa	-12314
▁savcılığa	-12315
▁fren	-12316
fotoğraf	-12317
▁sayım	-12318
▁tayvan	-12319
▁"2	-12320
▁anıtı	-12321
▁2008'	-12322
▁vurguluyor	-12323
▁abbas	-12324
lacağını	-12325
▁yakınlarının	-12326
▁öğrenmek	-12327
▁getirmeye	-12328
▁yerlerine	-12329
▁tarafın	-12330
▁rant	-12331
▁işçinin	-12332
▁belirtmişti	-12333
▁kutlamalar	-12334
▁i̇cra	-12335
▁zaferi	-12336
▁belgeler	-12337
▁bulunu	-12338
▁faaliyetler	-12339
▁içeriği	-12340
lisi	-12341
▁eklem	-12342
▁başlığıyla	-12343
▁usulsüz	-12344
▁aileye	-12345
melerinin	-12346
▁yapılabilecek	-12347
▁biten	-12348
sab	-12349
▁filmler	-12350
▁gelenler	-12351
▁gruba	-12352
▁nobel	-12353
şir	-12354
▁dağlık	-12355
▁hattında	-12356
naz	-12357
ikatür	-12358
▁açar	-12359
▁fernan	-12360
▁büyüklüğündeki	-12361
reden	-12362
likaya	-12363
oksit	-12364
▁kapak	-12365
▁karac	-12366
▁intern	-12367
▁projelerin	-12368
▁onayı	-12369
▁i̇kiz	-12370
▁barack	-12371
lılığını	-12372
▁paş	-12373
▁gerçekçi	-12374
▁q	-12375
▁festivalin	-12376
.10	-12377
▁problemi	-12378
▁nice	-12379
▁sınırına	-12380
roid	-12381
iyatif	-12382
▁bıçakla	-12383
▁yapın	-12384
▁piyasası	-12385
▁derya	-12386
▁alek	-12387
▁ödüllendir	-12388
▁mesci	-12389
▁birç	-12390
▁aracının	-12391
▁i̇sa	-12392
▁güçlerine	-12393
▁davayı	-12394
▁değerlendirmesi	-12395
tiniz	-12396
▁çamur	-12397
▁binasının	-12398
▁iletti	-12399
▁pompe	-12400
▁eyaleti	-12401
▁koruyan	-12402
▁kapasite	-12403
▁kapandı	-12404
▁maltepe	-12405
▁öngörülen	-12406
▁çiftlik	-12407
▁kobi̇	-12408
▁silahların	-12409
▁iddialarını	-12410
▁onar	-12411
▁taraftarı	-12412
▁makul	-12413
▁kalesi	-12414
▁140	-12415
▁melik	-12416
vans	-12417
▁yıp	-12418
▁dakikalık	-12419
▁saldırısında	-12420
▁ileride	-12421
▁tübi̇tak	-12422
▁devletler	-12423
▁fav	-12424
tap	-12425
chef	-12426
▁bulunduğumuz	-12427
▁zelen	-12428
alanı	-12429
▁hersek	-12430
▁kınıyor	-12431
ust	-12432
▁havz	-12433
="	-12434
▁tabir	-12435
▁yolculuğuna	-12436
▁şerit	-12437
▁kapısını	-12438
▁geçmişi	-12439
▁i̇y	-12440
▁takipç	-12441
▁istemedi	-12442
▁geçmeye	-12443
çıları	-12444
▁forvet	-12445
▁kenara	-12446
▁krize	-12447
kamu	-12448
▁kuvvetler	-12449
▁bölgesinin	-12450
▁sıkıntılı	-12451
▁stü	-12452
▁odaları	-12453
▁ileriye	-12454
▁yapalım	-12455
▁birliğinin	-12456
:00'	-12457
▁91	-12458
stri	-12459
▁yorumlar	-12460
▁imkanları	-12461
▁kafkas	-12462
▁kilisesi	-12463
▁hikaye	-12464
▁ili	-12465
▁beraberindeki	-12466
▁keb	-12467
▁yaralama	-12468
▁bilerek	-12469
▁korsan	-12470
fiz	-12471
▁tanr	-12472
▁ışığında	-12473
▁bunlarla	-12474
yür	-12475
▁hafter	-12476
▁artırdı	-12477
70	-12478
▁ış	-12479
▁zehra	-12480
▁okyanus	-12481
▁ertelendi	-12482
▁geçerken	-12483
▁terc	-12484
▁mecliste	-12485
▁yüzyılda	-12486
▁uymayan	-12487
lağı	-12488
liğimiz	-12489
▁aniden	-12490
▁denizde	-12491
▁3,	-12492
▁daimi	-12493
▁büyüdü	-12494
▁alışkanlık	-12495
▁kalmıştı	-12496
▁aym	-12497
▁1990'	-12498
▁masal	-12499
▁yasaklan	-12500
▁istemez	-12501
▁ped	-12502
▁efen	-12503
▁yapısal	-12504
enen	-12505
▁yetkin	-12506
tuğ	-12507
▁koşullar	-12508
▁telefonda	-12509
lacağı	-12510
▁faizi	-12511
▁tarihini	-12512
i̇ki	-12513
▁yapama	-12514
▁söylenen	-12515
▁yorumunu	-12516
▁log	-12517
▁yenileme	-12518
▁önlemlerin	-12519
▁ki̇şi̇	-12520
▁odasında	-12521
▁yöneticiler	-12522
▁alem	-12523
▁gerekçesi	-12524
▁nijerya	-12525
evler	-12526
▁tarafa	-12527
▁kayyum	-12528
▁seyhan	-12529
▁acilen	-12530
.2020	-12531
▁vural	-12532
▁edi̇l	-12533
silahlı	-12534
▁heyel	-12535
▁bağlantısı	-12536
▁birikim	-12537
elsea	-12538
▁yasadışı	-12539
▁göstermeye	-12540
▁selman	-12541
▁somali	-12542
▁malzemesi	-12543
▁atmaya	-12544
ekonomik	-12545
▁yapıya	-12546
▁kurtardı	-12547
▁tamamının	-12548
▁latin	-12549
▁verilmiştir	-12550
con	-12551
▁sosy	-12552
▁neyi	-12553
▁unutulmaz	-12554
▁drone	-12555
▁filminde	-12556
▁getirir	-12557
▁92	-12558
▁yerlikaya	-12559
▁defter	-12560
▁ford	-12561
▁kısıtlama	-12562
mailoğlu	-12563
sadece	-12564
▁galax	-12565
▁sıkça	-12566
▁maçtan	-12567
▁işlemlerin	-12568
amıyorum	-12569
▁kaldırmak	-12570
faz	-12571
▁eşcinsel	-12572
▁alin	-12573
▁kaybede	-12574
▁korkusu	-12575
▁karikatür	-12576
▁sami	-12577
▁liste	-12578
▁çocuğunun	-12579
▁alevi	-12580
▁seviyesinin	-12581
▁elvan	-12582
▁esenyurt	-12583
▁verilmişti	-12584
▁ikramiye	-12585
▁koruyor	-12586
▁arapça	-12587
▁eğitimde	-12588
▁anlamıyla	-12589
▁kullandığını	-12590
▁fotoğraflarını	-12591
gerçek	-12592
ersek	-12593
▁keşke	-12594
▁sağladığını	-12595
▁tamamlanması	-12596
▁günkü	-12597
▁galaxy	-12598
▁çirkin	-12599
▁istediğimiz	-12600
▁kullanıla	-12601
▁hani	-12602
▁halkımızın	-12603
▁kendinizi	-12604
▁ronaldo	-12605
emişti	-12606
abilirler	-12607
▁makedonya	-12608
▁sizlerin	-12609
▁sandaly	-12610
▁kamyonet	-12611
▁görünür	-12612
▁depresyon	-12613
▁sahibinin	-12614
▁savcılar	-12615
▁madaly	-12616
▁vermeyen	-12617
▁çevresindeki	-12618
▁hırvatistan	-12619
▁yuvarlak	-12620
▁mağlubiyet	-12621
▁gösterileri	-12622
▁savaşta	-12623
▁gi̇r	-12624
▁başsavcısı	-12625
tra	-12626
▁cihazı	-12627
▁karaismailoğlu	-12628
▁uğurlu	-12629
▁isterken	-12630
▁arkadaşımız	-12631
▁dönüp	-12632
▁izliyor	-12633
▁kayseri̇	-12634
yoz	-12635
▁rock	-12636
▁işlediği	-12637
▁yapabil	-12638
▁insanlığın	-12639
obb	-12640
▁3-1	-12641
isiz	-12642
aması	-12643
▁çalışkan	-12644
▁bulma	-12645
▁normalde	-12646
lamayacağını	-12647
▁çed	-12648
▁yapımcı	-12649
▁yığ	-12650
ihan	-12651
▁önems	-12652
9)	-12653
▁programını	-12654
uta	-12655
▁yaşamış	-12656
▁düşünülüyor	-12657
gız	-12658
mali	-12659
▁keşfed	-12660
▁vatandaşlık	-12661
atın	-12662
▁sönmez	-12663
▁koyu	-12664
ağan	-12665
acaklar	-12666
▁dezenfekte	-12667
▁küba	-12668
▁edemez	-12669
▁sürgün	-12670
▁hissettir	-12671
▁3,5	-12672
▁21.	-12673
▁çarptırıldı	-12674
▁yapacağ	-12675
▁vatandaşlarla	-12676
▁işit	-12677
▁adliyesi	-12678
▁ardahan	-12679
▁hemşehr	-12680
▁önlemi	-12681
▁ci	-12682
anayas	-12683
▁i̇ki̇	-12684
▁kurgu	-12685
▁kayıtları	-12686
▁çevirdi	-12687
▁yönetmenliğini	-12688
▁anlatmak	-12689
▁kapatılması	-12690
iyad	-12691
▁zirveye	-12692
▁çapraz	-12693
▁mükelle	-12694
dıma	-12695
▁artırarak	-12696
▁guardi	-12697
müz	-12698
▁paylaşmak	-12699
▁tablosu	-12700
▁asıllı	-12701
▁katılımı	-12702
şer	-12703
▁kolu	-12704
▁felsef	-12705
▁suçtan	-12706
▁bardak	-12707
▁sonuca	-12708
▁samim	-12709
▁yargıç	-12710
▁frankf	-12711
▁ödemesi	-12712
ion	-12713
olla	-12714
▁yakalanarak	-12715
elif	-12716
▁kapatılan	-12717
▁aramızda	-12718
lanmaya	-12719
▁düzenlemesi	-12720
▁tedavisinde	-12721
▁bazılarının	-12722
▁boks	-12723
▁yayınlanacak	-12724
unma	-12725
▁keyfi	-12726
▁varol	-12727
▁turistik	-12728
▁mıdır	-12729
lileri	-12730
▁çalışarak	-12731
▁neye	-12732
▁medyaya	-12733
▁girer	-12734
▁kredisi	-12735
▁diktatör	-12736
▁avukatlar	-12737
uluslararası	-12738
▁kolombiya	-12739
▁aynen	-12740
▁tarık	-12741
▁operasyonları	-12742
▁uslu	-12743
▁kalitesi	-12744
▁başladılar	-12745
▁ürünlerini	-12746
yanmar	-12747
▁microsoft	-12748
şehi̇r	-12749
ero	-12750
▁hibe	-12751
▁ulaşması	-12752
hol	-12753
sadi	-12754
▁masada	-12755
▁üstesinden	-12756
▁değişikliğine	-12757
▁sonucuna	-12758
▁ala	-12759
▁yapmasını	-12760
▁portakal	-12761
▁müdahalenin	-12762
▁termin	-12763
▁görevlilerinin	-12764
▁dönüşü	-12765
▁kolluk	-12766
mund	-12767
▁değiştirdi	-12768
trak	-12769
▁yakup	-12770
▁yinel	-12771
peryal	-12772
▁basını	-12773
▁sunucu	-12774
my	-12775
▁bilmiyoruz	-12776
leyeceğiz	-12777
▁belirlemek	-12778
▁faş	-12779
▁gökçek	-12780
▁durdurulması	-12781
▁uğruna	-12782
ınacak	-12783
▁hande	-12784
▁çoğal	-12785
▁unutma	-12786
▁ilçenin	-12787
▁lev	-12788
lamayan	-12789
▁uğradığı	-12790
▁işlerini	-12791
▁başlanan	-12792
tarih	-12793
pas	-12794
▁gücüne	-12795
▁maddenin	-12796
▁2.5	-12797
▁söylediğini	-12798
▁çelenk	-12799
▁gerektiren	-12800
▁19.	-12801
▁masterchef	-12802
▁geçirilmesi	-12803
▁biyografisi	-12804
sağlık	-12805
▁tuğgeneral	-12806
▁gecede	-12807
▁denge	-12808
▁protokolü	-12809
▁hükmetti	-12810
uli	-12811
▁prensip	-12812
▁vatandaşlarının	-12813
ja	-12814
▁kitle	-12815
▁çakmak	-12816
▁dergi	-12817
▁tuzla	-12818
▁deneme	-12819
▁mutasyon	-12820
▁koman	-12821
▁gücünün	-12822
▁abdülham	-12823
▁160	-12824
▁hamle	-12825
▁yapılmadı	-12826
▁içeriyor	-12827
▁gövde	-12828
▁tamamladık	-12829
▁eczacı	-12830
▁kaçmaya	-12831
▁fık	-12832
▁oturdu	-12833
▁kalkanı	-12834
▁ilgisini	-12835
olay	-12836
▁oturduğu	-12837
▁firari	-12838
▁materyal	-12839
▁malzemeler	-12840
▁tuta	-12841
▁patron	-12842
▁uçakla	-12843
dırıcı	-12844
▁mutluluğunu	-12845
uğ	-12846
▁konuların	-12847
▁kardeşlik	-12848
▁mahir	-12849
▁android	-12850
kem	-12851
▁yaygınlaştır	-12852
emediğini	-12853
▁müdahalelere	-12854
mun	-12855
üste	-12856
▁cap	-12857
▁yasemin	-12858
▁durdurul	-12859
çik	-12860
öğren	-12861
▁verebilir	-12862
▁yapmadı	-12863
atlar	-12864
i̇b	-12865
▁gülüm	-12866
▁makamında	-12867
▁görgü	-12868
▁düşmanı	-12869
▁odasına	-12870
▁uygulandı	-12871
leyin	-12872
▁tepe	-12873
▁kasır	-12874
elerindeki	-12875
▁kıran	-12876
▁gürült	-12877
▁yakını	-12878
▁turistler	-12879
▁clin	-12880
▁ze	-12881
▁şehre	-12882
▁rahatsızlığı	-12883
uter	-12884
▁katılımcıların	-12885
▁karas	-12886
vanya	-12887
▁chelsea	-12888
▁başvurular	-12889
▁100.	-12890
▁i̇kin	-12891
▁kırıkkale	-12892
▁vatandaşımız	-12893
değer	-12894
▁eczan	-12895
landırma	-12896
▁patr	-12897
▁çöktü	-12898
▁çalışmalarla	-12899
▁yöntemiyle	-12900
▁üzücü	-12901
▁fragman	-12902
▁öldürüldüğü	-12903
use	-12904
alılar	-12905
▁ukraynalı	-12906
baz	-12907
▁sokt	-12908
▁belirlenecek	-12909
▁arkadaşlarıyla	-12910
▁ereğ	-12911
alığın	-12912
▁tapu	-12913
i̇zmir	-12914
▁mobilya	-12915
▁gençlerbirliği	-12916
larınca	-12917
▁stadyumu	-12918
▁turizmi	-12919
▁olaylara	-12920
suç	-12921
▁düşmüş	-12922
▁anlaşıldı	-12923
▁kalec	-12924
mazsa	-12925
▁konfeder	-12926
▁olmaktadır	-12927
▁duyduklarını	-12928
▁varil	-12929
▁partileri	-12930
▁karayolları	-12931
▁kontenjan	-12932
olf	-12933
▁kapatma	-12934
▁borsası	-12935
▁oluruz	-12936
▁yönetimini	-12937
▁araştırması	-12938
ılanıyor	-12939
▁körfezi	-12940
kom	-12941
▁brezilyalı	-12942
▁erkeklerde	-12943
▁hon	-12944
▁gelişimi	-12945
▁mülakat	-12946
▁mill	-12947
▁dâhil	-12948
▁üretmek	-12949
▁bilinmiyor	-12950
▁tüy	-12951
▁saz	-12952
uydu	-12953
▁ceviz	-12954
▁sahiplerinin	-12955
▁azaltılması	-12956
▁hum	-12957
▁edelim	-12958
▁raporun	-12959
▁thomas	-12960
▁varmış	-12961
▁kalmayı	-12962
▁menz	-12963
▁projesini	-12964
▁hollandalı	-12965
ozan	-12966
lesin	-12967
▁ilçesinin	-12968
▁tems	-12969
▁gümüşhane	-12970
▁parçaları	-12971
▁otomobilde	-12972
▁riv	-12973
▁tema	-12974
▁yarışmada	-12975
▁bitirdi	-12976
▁rejiminin	-12977
▁organizasyonu	-12978
▁kavgada	-12979
▁18'	-12980
▁pasif	-12981
▁üretimin	-12982
▁kurulunda	-12983
bı	-12984
▁hizmetine	-12985
▁amasya	-12986
▁tuh	-12987
▁cis	-12988
masa	-12989
▁basının	-12990
▁ulaştık	-12991
▁söylerken	-12992
▁üçlü	-12993
▁zarrab	-12994
▁beklentiler	-12995
▁yukarıda	-12996
▁etiket	-12997
▁yardıma	-12998
ike	-12999
▁rod	-13000
▁manz	-13001
emiyoruz	-13002
▁aramalarda	-13003
▁mülteciler	-13004
▁videoda	-13005
▁milletinin	-13006
▁satılıyor	-13007
▁basında	-13008
▁karışan	-13009
ett	-13010
ezi	-13011
▁450	-13012
▁durmuş	-13013
▁taziye	-13014
▁vaziyet	-13015
▁üstlendi	-13016
▁kırgız	-13017
▁rit	-13018
evit	-13019
▁ked	-13020
▁gh	-13021
▁başkonsolos	-13022
▁alabilecek	-13023
▁ge	-13024
▁kürtlerin	-13025
▁operasyonla	-13026
kik	-13027
▁hakik	-13028
▁tabel	-13029
▁belirtirken	-13030
▁tartışmalara	-13031
▁futbolcusu	-13032
▁kaynaklarının	-13033
▁büyümesi	-13034
▁yansım	-13035
▁sansür	-13036
▁tabip	-13037
▁binasına	-13038
▁gazetesine	-13039
ft	-13040
▁üstünlüğü	-13041
▁nurettin	-13042
cker	-13043
▁otobüsü	-13044
▁sınıfı	-13045
▁çocuğum	-13046
▁hacmi	-13047
▁i̇hal	-13048
▁sanatçının	-13049
▁kitapları	-13050
▁atmış	-13051
▁pompeo	-13052
▁içerikli	-13053
▁oyunculuk	-13054
▁niz	-13055
▁yerlerinden	-13056
▁sürat	-13057
▁açtığını	-13058
org	-13059
▁esin	-13060
▁havaalanı	-13061
▁fre	-13062
dalar	-13063
▁naci	-13064
▁cümle	-13065
▁myanmar	-13066
▁taşıyacak	-13067
**	-13068
▁girişi	-13069
▁yaptıktan	-13070
tk	-13071
oğul	-13072
▁geçildi	-13073
▁hort	-13074
▁ehliyet	-13075
▁sürdüreceğiz	-13076
▁dayandır	-13077
▁bulduğunu	-13078
▁habertürk	-13079
▁bulduk	-13080
▁bireyler	-13081
▁eşitliği	-13082
▁kalitesini	-13083
▁ilişkili	-13084
▁yürüdü	-13085
▁gününden	-13086
▁iddialarına	-13087
▁dilim	-13088
gö	-13089
▁haberini	-13090
▁nitelikte	-13091
▁birbirini	-13092
▁türklerin	-13093
▁emri	-13094
▁sandığa	-13095
eride	-13096
▁kapital	-13097
▁angeles	-13098
▁günümüze	-13099
▁rutin	-13100
▁kalbi	-13101
▁madencilik	-13102
▁baran	-13103
▁bektaş	-13104
▁husum	-13105
▁abdurrahman	-13106
▁miz	-13107
▁bilgilerini	-13108
▁epey	-13109
▁kılı	-13110
▁clinton	-13111
▁muayen	-13112
▁öğleden	-13113
▁saldırdı	-13114
▁sevdiği	-13115
▁bakıma	-13116
fran	-13117
▁zeybek	-13118
ağaç	-13119
▁ölçekli	-13120
▁yönünden	-13121
▁ressam	-13122
▁huzurlu	-13123
▁haric	-13124
▁müdürleri	-13125
▁yapacaklarını	-13126
▁hayırsever	-13127
▁etkileyecek	-13128
▁news	-13129
▁kesti	-13130
▁kuma	-13131
▁getirmiş	-13132
▁komit	-13133
▁çabaları	-13134
▁memnuniyeti	-13135
▁kürtçe	-13136
▁konaklama	-13137
▁forum	-13138
▁futbolu	-13139
▁yıllara	-13140
▁çoktan	-13141
▁çeyrekte	-13142
oyun	-13143
▁zevk	-13144
▁serhat	-13145
▁isminin	-13146
ling	-13147
▁hükümetine	-13148
▁maddesinin	-13149
▁kurmay	-13150
▁muratpaşa	-13151
▁değindi	-13152
▁kiralama	-13153
▁sevda	-13154
▁aldıktan	-13155
▁kontrolünü	-13156
▁geminin	-13157
):	-13158
▁ağacı	-13159
▁yankı	-13160
▁bağcılar	-13161
▁beklentileri	-13162
stein	-13163
miyoruz	-13164
▁düşünmek	-13165
ılmaktadır	-13166
▁tuhaf	-13167
▁birliğine	-13168
▁seçimlerinin	-13169
ozcu	-13170
▁oylama	-13171
▁gereğini	-13172
bazı	-13173
▁filip	-13174
▁temelli	-13175
▁kaybetmesi	-13176
haz	-13177
umuzda	-13178
▁ağabeyi	-13179
▁alpar	-13180
▁çabası	-13181
meyeceği	-13182
▁amaçlayan	-13183
ble	-13184
.2019	-13185
güzel	-13186
izyonu	-13187
▁manev	-13188
▁küm	-13189
için	-13190
▁boyutu	-13191
araya	-13192
▁vefa	-13193
▁tezah	-13194
▁uçakları	-13195
▁ilki	-13196
▁turhan	-13197
▁katılarak	-13198
▁ellerinden	-13199
yargı	-13200
▁değinerek	-13201
▁yazılan	-13202
ormal	-13203
▁arsen	-13204
▁değerlendirmek	-13205
▁mb	-13206
elerdeki	-13207
hük	-13208
yü	-13209
ces	-13210
▁trafiği	-13211
▁adresinden	-13212
▁paylaşımında	-13213
▁sevkiyat	-13214
▁dicle	-13215
▁nesn	-13216
▁şanslı	-13217
▁yetkililere	-13218
▁bakanlığından	-13219
▁tuzak	-13220
▁sn	-13221
▁objektif	-13222
▁öğretmenlerin	-13223
▁sahipliğinde	-13224
ceğini	-13225
▁gerçekleştiği	-13226
▁fiyatlarında	-13227
▁bilgisine	-13228
▁yağı	-13229
▁temyiz	-13230
▁seçme	-13231
▁anısına	-13232
▁hazırlandı	-13233
▁işlenen	-13234
▁nazlı	-13235
▁aydemir	-13236
▁diyecek	-13237
▁çatışmada	-13238
▁istikrarı	-13239
▁yenişehir	-13240
▁yükü	-13241
▁forumu	-13242
▁hurda	-13243
▁durdurma	-13244
▁yöntemleri	-13245
etice	-13246
▁tezahür	-13247
mazken	-13248
▁öksüz	-13249
rad	-13250
tayız	-13251
lywood	-13252
▁çöl	-13253
▁dinledi	-13254
▁beklediğini	-13255
ontech	-13256
ted	-13257
▁taç	-13258
▁yatırımların	-13259
▁üretimini	-13260
▁saygılı	-13261
▁öğrenme	-13262
▁yumurt	-13263
▁oturup	-13264
beti	-13265
▁mi̇	-13266
dimiz	-13267
▁denetimi	-13268
mustafa	-13269
▁görevlerini	-13270
▁demirci	-13271
▁geldiğimiz	-13272
▁soyer	-13273
▁düşürül	-13274
▁denen	-13275
▁i̇skoç	-13276
ümüzde	-13277
▁ciddiye	-13278
▁hastanenin	-13279
▁golcü	-13280
▁düşünerek	-13281
venin	-13282
▁ceyhan	-13283
▁yolcular	-13284
▁gözle	-13285
▁gerçekleri	-13286
▁hev	-13287
▁görülür	-13288
▁sektörüne	-13289
ânı	-13290
li̇ği̇	-13291
yaj	-13292
well	-13293
▁geçin	-13294
ademi	-13295
▁aman	-13296
▁bunda	-13297
▁kavşak	-13298
▁senedir	-13299
▁atölye	-13300
eğimiz	-13301
▁lavrov	-13302
fiye	-13303
▁aliyev	-13304
meyle	-13305
▁mi̇lyon	-13306
▁iştirak	-13307
▁500'	-13308
▁necati	-13309
▁komiser	-13310
▁sic	-13311
▁sistemde	-13312
▁rtük	-13313
▁bugünden	-13314
▁yardımcılığı	-13315
▁hoşgör	-13316
▁delik	-13317
▁all	-13318
▁inen	-13319
▁bakımda	-13320
iret	-13321
▁omur	-13322
arız	-13323
▁farkla	-13324
▁dalgalan	-13325
▁belirtilirken	-13326
▁14'	-13327
-12	-13328
▁insanlarla	-13329
▁şirkete	-13330
▁bazda	-13331
▁temenn	-13332
ırız	-13333
▁türkç	-13334
▁düşünülen	-13335
▁başlıca	-13336
▁geleceğine	-13337
dut	-13338
▁solu	-13339
▁şirin	-13340
▁gültekin	-13341
▁hafiflet	-13342
▁görüldüğünü	-13343
▁taşıyı	-13344
cıların	-13345
▁kuveyt	-13346
vatandaş	-13347
▁elmas	-13348
▁entegr	-13349
+1	-13350
▁kullanıma	-13351
▁ölenlerin	-13352
▁aleyh	-13353
▁kitapta	-13354
▁mam	-13355
▁sizden	-13356
▁gelsin	-13357
▁balon	-13358
▁zararı	-13359
avat	-13360
▁fazlasıyla	-13361
▁sanatçılar	-13362
▁suçladı	-13363
▁yaşanacak	-13364
▁başlamak	-13365
▁senatör	-13366
▁patlamanın	-13367
▁hedeflerine	-13368
▁komplek	-13369
▁etmediğini	-13370
▁peter	-13371
▁kapsamındaki	-13372
▁kararların	-13373
ûm	-13374
▁eksiklik	-13375
▁gerçekleştirmek	-13376
▁dengeli	-13377
▁izlediği	-13378
allı	-13379
▁tecrübe	-13380
▁takımdan	-13381
▁stadyum	-13382
▁oyunlar	-13383
▁tartışması	-13384
▁midir	-13385
▁kalmayacak	-13386
isiniz	-13387
ventus	-13388
▁imzalandı	-13389
▁çekilmiş	-13390
▁gereğince	-13391
riye	-13392
▁tasarısı	-13393
▁artırıyor	-13394
▁kapsamına	-13395
▁kürs	-13396
▁ülker	-13397
▁zorlaştır	-13398
▁kaldırılarak	-13399
▁caminin	-13400
▁tabancayla	-13401
▁uyarıda	-13402
▁destekler	-13403
ilmi	-13404
▁"20	-13405
▁seçimlerine	-13406
▁tered	-13407
▁nedi̇r	-13408
▁öğrencilerinin	-13409
mers	-13410
▁gereksiz	-13411
▁meşhur	-13412
▁kanalizasyon	-13413
eddin	-13414
▁alanının	-13415
▁kayd	-13416
▁rekoru	-13417
▁bulutlu	-13418
▁cüzdan	-13419
bül	-13420
kot	-13421
▁analistler	-13422
▁nedenleri	-13423
fin	-13424
▁böylesi	-13425
cılığını	-13426
-35	-13427
▁götürül	-13428
iyop	-13429
over	-13430
▁komedi	-13431
▁sorulan	-13432
▁destekliyor	-13433
▁mütev	-13434
▁kurtarılamadı	-13435
▁ptt	-13436
▁maçlarda	-13437
▁ekranlarında	-13438
▁kızları	-13439
haf	-13440
post	-13441
▁halini	-13442
▁eleştiriler	-13443
▁çalışmasını	-13444
▁arnavutluk	-13445
▁dekar	-13446
▁sizlerle	-13447
▁grand	-13448
▁yargıya	-13449
▁ruhu	-13450
▁duyuyor	-13451
▁berk	-13452
▁alınmıştır	-13453
▁alacağını	-13454
▁kamil	-13455
▁alınmasının	-13456
sia	-13457
▁andan	-13458
▁brun	-13459
▁savr	-13460
▁soruşturmada	-13461
▁tekne	-13462
bit	-13463
▁döktü	-13464
anıyorum	-13465
▁devasa	-13466
:30	-13467
▁çıkabilir	-13468
kük	-13469
▁nazım	-13470
▁umudu	-13471
elerce	-13472
▁enes	-13473
▁sema	-13474
▁silahı	-13475
▁piyasalarda	-13476
▁rica	-13477
▁hası	-13478
▁sibel	-13479
▁akgün	-13480
▁etmekten	-13481
▁15.	-13482
▁hop	-13483
▁dolaylı	-13484
▁görüşmeye	-13485
▁kadarıyla	-13486
bai	-13487
i̇slam	-13488
▁düşünmüyorum	-13489
▁yetiştiric	-13490
▁ceh	-13491
▁daima	-13492
▁katılıyor	-13493
▁operasyonunda	-13494
▁vilayet	-13495
▁silahlar	-13496
fener	-13497
▁dersi	-13498
iliğine	-13499
▁görevleri	-13500
dw	-13501
▁gölet	-13502
▁faaliyeti	-13503
▁sürücüler	-13504
▁karantinaya	-13505
▁baskısı	-13506
▁yakınında	-13507
▁yumuşak	-13508
arlar	-13509
▁şii	-13510
▁açılışında	-13511
▁bronz	-13512
lemenin	-13513
▁yapmadan	-13514
▁temeli	-13515
▁armağan	-13516
▁ciz	-13517
▁tutmaya	-13518
▁kaybının	-13519
▁hastaları	-13520
▁kırdı	-13521
▁pazarında	-13522
▁imzala	-13523
▁tanker	-13524
▁alparslan	-13525
▁haberinde	-13526
▁sırrı	-13527
kasten	-13528
▁dehşet	-13529
▁yaşındayken	-13530
▁depremzede	-13531
tum	-13532
▁geçişi	-13533
▁böylesine	-13534
▁ikramiy	-13535
▁tanıyan	-13536
▁çıkarıyor	-13537
▁hususunda	-13538
▁vakası	-13539
▁öldürmek	-13540
▁fethullah	-13541
▁kurulunun	-13542
aro	-13543
▁işleyen	-13544
▁rakamları	-13545
▁yapılanması	-13546
yn	-13547
▁rejimin	-13548
amayacağını	-13549
ortmund	-13550
▁konusuna	-13551
▁mülkiyet	-13552
▁yı	-13553
▁kabiliyet	-13554
▁sürdürdüğü	-13555
▁kurumlarının	-13556
▁yazın	-13557
▁ülkelerle	-13558
▁kuzu	-13559
▁dünkü	-13560
▁afiş	-13561
▁netice	-13562
▁yasanın	-13563
▁maksim	-13564
▁üniversitenin	-13565
labilir	-13566
ısınız	-13567
ilmesinde	-13568
▁meryem	-13569
burt	-13570
▁ailelere	-13571
▁fişek	-13572
▁hadise	-13573
▁mesleği	-13574
▁tepkisi	-13575
kırı	-13576
▁nba	-13577
▁komünist	-13578
eyiz	-13579
▁çare	-13580
ilebilecek	-13581
▁13'	-13582
▁gayreti	-13583
▁alınmasına	-13584
▁meşgul	-13585
gini	-13586
▁halit	-13587
▁yarımada	-13588
▁atacak	-13589
▁patent	-13590
▁yönetime	-13591
▁sürücünün	-13592
▁hane	-13593
▁bastı	-13594
▁değerini	-13595
▁bildiği	-13596
▁cezai	-13597
▁ilaçlar	-13598
▁bi̇l	-13599
▁hazin	-13600
▁eşine	-13601
▁dinleme	-13602
▁elimizde	-13603
▁girmeye	-13604
▁esk	-13605
▁unutul	-13606
▁barınma	-13607
▁kumar	-13608
▁toros	-13609
▁taşınmaz	-13610
▁rüya	-13611
▁dj	-13612
▁kaybına	-13613
manuel	-13614
▁boris	-13615
▁kontrolünden	-13616
▁niteliği	-13617
▁müdahalede	-13618
▁yetkililerinin	-13619
keş	-13620
.2021	-13621
▁kursiy	-13622
▁kurulmuş	-13623
▁karşılaştık	-13624
▁makyaj	-13625
▁çekirdek	-13626
▁yanlarında	-13627
iyana	-13628
▁gerektiğinin	-13629
▁tahrib	-13630
▁öncülük	-13631
▁önerisi	-13632
▁kategoride	-13633
▁sec	-13634
▁posta	-13635
▁edilip	-13636
▁vasıtasıyla	-13637
▁olanı	-13638
▁dünyasına	-13639
▁çub	-13640
▁sektöre	-13641
▁pehlivan	-13642
▁kaybettik	-13643
▁düşme	-13644
▁oyunda	-13645
diy	-13646
▁yatırımı	-13647
▁yüklen	-13648
▁kurb	-13649
▁muazz	-13650
▁kamusal	-13651
▁konsept	-13652
melere	-13653
▁eklendi	-13654
▁gole	-13655
▁aktararak	-13656
▁çarpan	-13657
düş	-13658
▁yener	-13659
▁garant	-13660
▁patlat	-13661
anne	-13662
▁cezasını	-13663
▁binalar	-13664
▁talip	-13665
▁tanıklık	-13666
▁aren	-13667
▁çekilme	-13668
▁eleb	-13669
▁iftira	-13670
▁normale	-13671
▁iptali	-13672
▁motorlu	-13673
ılmalıdır	-13674
99	-13675
▁damat	-13676
▁röportajda	-13677
▁tsi̇	-13678
cem	-13679
▁idaresindeki	-13680
stra	-13681
▁niyetli	-13682
??	-13683
▁heyecanla	-13684
hüküm	-13685
lendirme	-13686
▁endüstriyel	-13687
▁yeryüz	-13688
▁demokrasiye	-13689
▁propagandası	-13690
▁uçur	-13691
▁sendika	-13692
▁yapamaz	-13693
▁başvuran	-13694
yok	-13695
▁şap	-13696
▁düzenlenmesi	-13697
i̇zi̇	-13698
▁destan	-13699
▁gelinen	-13700
▁yaşananları	-13701
▁arız	-13702
▁grupta	-13703
▁suat	-13704
▁yapılar	-13705
lükte	-13706
▁yakınlarındaki	-13707
▁alarm	-13708
▁yönden	-13709
▁kaldırım	-13710
▁çocuğunu	-13711
ado	-13712
▁versiyon	-13713
▁izleyic	-13714
▁asans	-13715
▁mısınız	-13716
▁üretimine	-13717
▁tayin	-13718
▁yitirdiği	-13719
▁saldırılarda	-13720
leyeceği	-13721
▁16'	-13722
▁dayanarak	-13723
▁ameliyatı	-13724
▁ruhsatsız	-13725
▁yapılmıştır	-13726
▁lah	-13727
▁bebeği	-13728
▁evinden	-13729
▁dayanıklı	-13730
▁koşu	-13731
▁mermi	-13732
ğindeki	-13733
▁sokaklar	-13734
▁öngörüyor	-13735
▁hut	-13736
▁muamel	-13737
-18	-13738
▁açıklamanın	-13739
▁giderilmesi	-13740
▁5,	-13741
▁mutluyuz	-13742
▁gürsel	-13743
11	-13744
▁sayfasında	-13745
▁parsel	-13746
▁felç	-13747
prü	-13748
▁olmadığının	-13749
▁söyleyebiliriz	-13750
▁güçlendirmek	-13751
▁koştu	-13752
▁döş	-13753
▁sokaklara	-13754
▁müfettiş	-13755
emiştir	-13756
▁taşındı	-13757
▁salgınla	-13758
kun	-13759
▁osb	-13760
▁halkla	-13761
▁vermez	-13762
▁yargının	-13763
koz	-13764
▁yararlı	-13765
halk	-13766
▁teröristin	-13767
▁kontrolünde	-13768
▁koyarak	-13769
▁rap	-13770
▁halis	-13771
▁olaylarda	-13772
▁sembo	-13773
▁tebliğ	-13774
▁ful	-13775
▁spek	-13776
▁sürüm	-13777
▁bakanlığına	-13778
▁ereğli	-13779
▁unsuru	-13780
alam	-13781
▁üslu	-13782
layacağız	-13783
▁çıkmasını	-13784
▁dortmund	-13785
▁diliyoruz	-13786
ılımı	-13787
▁juventus	-13788
▁virüse	-13789
▁mühür	-13790
20'	-13791
▁fethiye	-13792
▁bedelini	-13793
▁önü	-13794
▁sahadan	-13795
▁düşer	-13796
▁sebz	-13797
▁kişilerden	-13798
▁yalı	-13799
▁zu	-13800
▁seçkin	-13801
▁kılınan	-13802
▁saatlerinden	-13803
▁evlerin	-13804
▁gelişmelere	-13805
▁rövan	-13806
▁devret	-13807
▁sünnet	-13808
▁casusluk	-13809
▁zulüm	-13810
▁gazetenin	-13811
▁öğrendik	-13812
▁bag	-13813
-30	-13814
▁mun	-13815
▁gerçekleşmesi	-13816
▁tayland	-13817
▁olanları	-13818
▁staj	-13819
▁uçan	-13820
bildi	-13821
▁danışma	-13822
bes	-13823
▁iğdır	-13824
▁teröre	-13825
ılmasında	-13826
▁mahm	-13827
▁dum	-13828
▁görülmesi	-13829
pers	-13830
▁rüzg	-13831
▁hareketleri	-13832
▁uygulamasının	-13833
▁kimya	-13834
▁görmesi	-13835
▁pazarlık	-13836
▁pri	-13837
uştuk	-13838
▁vücudun	-13839
▁buruk	-13840
▁iskel	-13841
▁avcılar	-13842
▁komando	-13843
▁caf	-13844
▁kapasiteli	-13845
▁azalarak	-13846
▁şirketlere	-13847
▁reis	-13848
▁giydiği	-13849
meme	-13850
▁aşkı	-13851
▁soner	-13852
▁sorulara	-13853
balaj	-13854
müşt	-13855
▁dezenfek	-13856
avir	-13857
▁teknolojinin	-13858
▁kampı	-13859
sc	-13860
▁espr	-13861
▁dalında	-13862
▁kazanması	-13863
▁kılavuz	-13864
▁yu	-13865
çısı	-13866
ilmemesi	-13867
▁west	-13868
▁ecevit	-13869
▁takviye	-13870
▁toplantısının	-13871
dris	-13872
▁katılımcılar	-13873
▁uygul	-13874
▁uyuş	-13875
▁şefi	-13876
▁ayvalık	-13877
▁2007'	-13878
▁güçlen	-13879
▁çoğunun	-13880
▁emperyal	-13881
▁presti	-13882
▁ağaoğlu	-13883
▁ailesini	-13884
▁gb	-13885
▁malum	-13886
▁sanatlar	-13887
uştan	-13888
▁kazanmış	-13889
▁tabiat	-13890
▁arkadaşının	-13891
▁hacm	-13892
▁ilerlem	-13893
▁başlangıc	-13894
▁kılan	-13895
▁hareketli	-13896
▁mete	-13897
▁oluşacak	-13898
lıların	-13899
▁gösterecek	-13900
ansta	-13901
▁yarıya	-13902
sir	-13903
▁atılması	-13904
▁kablo	-13905
bert	-13906
sm	-13907
azıt	-13908
▁"201	-13909
▁zede	-13910
▁last	-13911
▁yüreğ	-13912
▁ölümünün	-13913
▁i̇çer	-13914
▁kaldım	-13915
▁bük	-13916
mayarak	-13917
▁göçmenler	-13918
▁fr	-13919
ayıcı	-13920
laştı	-13921
ınızın	-13922
düzü	-13923
▁arıtma	-13924
▁bindir	-13925
▁uyandır	-13926
▁anlaşmayı	-13927
▁girişimci	-13928
▁istikrarlı	-13929
gh	-13930
▁band	-13931
▁eğitimler	-13932
▁bulunurken	-13933
▁hilmi	-13934
▁toptan	-13935
▁köye	-13936
▁belirleyici	-13937
.''	-13938
▁02:00	-13939
ersiniz	-13940
▁aşağıya	-13941
▁derinden	-13942
▁aylar	-13943
▁boyutlu	-13944
ica	-13945
▁step	-13946
▁gidiyoruz	-13947
▁azınlık	-13948
▁protestolar	-13949
▁yaşayacak	-13950
▁yöresel	-13951
▁çamaşır	-13952
▁çizerek	-13953
▁alabilir	-13954
▁uygulamasına	-13955
aze	-13956
▁düşerek	-13957
ırlar	-13958
▁düşünül	-13959
▁geçiriyor	-13960
▁idrar	-13961
▁tutumu	-13962
▁evlerinin	-13963
▁karla	-13964
▁ideolojik	-13965
▁uygulamayı	-13966
▁yapmaları	-13967
▁messi	-13968
▁görülmemiş	-13969
▁...	-13970
▁özbekistan	-13971
▁yüzleş	-13972
▁kurallar	-13973
▁anlaşmalar	-13974
▁kişide	-13975
mahal	-13976
▁attık	-13977
▁ekonomiyi	-13978
▁gösterge	-13979
▁yir	-13980
▁özil	-13981
leri̇n	-13982
▁belirleyen	-13983
▁lö	-13984
▁yürüttük	-13985
▁gitmeye	-13986
▁gübre	-13987
▁tüfeği	-13988
kestr	-13989
▁yaşını	-13990
▁duygusu	-13991
▁hastanesinde	-13992
imser	-13993
cher	-13994
lamayacak	-13995
▁sayısına	-13996
▁üreticileri	-13997
▁mültecilerin	-13998
melerin	-13999
▁talebin	-14000
▁değerlendirilen	-14001
nal	-14002
▁gayri	-14003
▁aşısının	-14004
▁eylemler	-14005
▁işlemlerini	-14006
mert	-14007
▁sorunlarına	-14008
▁bayraklı	-14009
cılığına	-14010
▁ardında	-14011
▁kapanma	-14012
▁belirlem	-14013
▁bozukluğu	-14014
▁param	-14015
▁soruyor	-14016
▁sahasına	-14017
barış	-14018
▁uçar	-14019
▁durumları	-14020
▁baktı	-14021
▁oturt	-14022
▁charles	-14023
▁edebil	-14024
hanesi	-14025
▁ifadesinin	-14026
dafi	-14027
▁etkisinin	-14028
▁karataş	-14029
▁açıkçası	-14030
▁yetenekli	-14031
tagon	-14032
▁kendime	-14033
▁beylik	-14034
▁hemşir	-14035
▁barışın	-14036
▁ettiğine	-14037
▁geçirdik	-14038
▁orkestr	-14039
▁kısıtlaması	-14040
▁versin	-14041
▁ulaşabilirsiniz	-14042
▁kesilen	-14043
▁dağları	-14044
▁belirlediği	-14045
▁çarparak	-14046
▁pır	-14047
▁sizce	-14048
vad	-14049
▁lit	-14050
▁puana	-14051
▁hollywood	-14052
▁bilan	-14053
▁sonuçlandı	-14054
▁sıçra	-14055
▁ambalaj	-14056
▁ödüllü	-14057
▁verilmedi	-14058
▁green	-14059
▁intikam	-14060
▁alık	-14061
▁ailem	-14062
▁mümkündür	-14063
▁viyana	-14064
▁emmanuel	-14065
▁bahan	-14066
▁sonuçların	-14067
▁jack	-14068
▁sınırlarını	-14069
▁festivalde	-14070
▁maddesinde	-14071
▁manip	-14072
▁hayvans	-14073
▁kullanacak	-14074
▁i̇mar	-14075
▁i̇zzet	-14076
▁eyleme	-14077
iyes	-14078
▁arena	-14079
ora	-14080
▁yapil	-14081
▁kısaca	-14082
▁internette	-14083
▁psikoloj	-14084
▁kaybederken	-14085
▁siyasetçiler	-14086
dünyanın	-14087
▁yatırımcıların	-14088
▁varyant	-14089
▁fl	-14090
▁umud	-14091
▁bütçesi	-14092
▁kıdemli	-14093
maktır	-14094
▁koruy	-14095
▁pis	-14096
▁ender	-14097
▁evini	-14098
▁endüstri	-14099
▁şüphesiz	-14100
▁boşa	-14101
▁denli	-14102
▁depremi	-14103
masındaki	-14104
▁yararına	-14105
▁i̇dari	-14106
▁sob	-14107
▁limon	-14108
▁gelişmesi	-14109
▁israf	-14110
▁dip	-14111
▁riba	-14112
▁karakterini	-14113
▁sent	-14114
meyiz	-14115
▁köln	-14116
▁yamaç	-14117
▁link	-14118
tenberg	-14119
▁partner	-14120
▁parçalan	-14121
▁hastalarda	-14122
▁araçlarının	-14123
▁malezya	-14124
çinin	-14125
▁von	-14126
▁şirketten	-14127
▁yıkılan	-14128
▁gördüğüm	-14129
▁adımların	-14130
▁cezayı	-14131
▁düşündüm	-14132
▁depremler	-14133
▁incelendi	-14134
▁yıldönümü	-14135
affer	-14136
▁hedefe	-14137
▁vermem	-14138
▁değerlendirildi	-14139
i̇ni̇n	-14140
▁konuşuluyor	-14141
▁yaratıyor	-14142
▁yarışmaya	-14143
▁hastanelerde	-14144
▁sürdürüyoruz	-14145
fır	-14146
▁karşısındaki	-14147
▁uğurlandı	-14148
▁noktaları	-14149
▁oyunc	-14150
tah	-14151
▁dille	-14152
▁evlerde	-14153
▁bertaraf	-14154
▁sloganıyla	-14155
▁hikayesini	-14156
▁cezaevinden	-14157
ıh	-14158
▁tetkik	-14159
▁mevkidaş	-14160
▁finalinde	-14161
▁şaşırt	-14162
tacağız	-14163
▁vahşi	-14164
▁gittikçe	-14165
▁köylüler	-14166
▁yerlerini	-14167
ila	-14168
▁sergen	-14169
▁kurarak	-14170
▁ulaşıldı	-14171
▁aralıklarla	-14172
▁söyleyebilirim	-14173
▁ücretin	-14174
▁sayfalık	-14175
▁düşürdü	-14176
▁politikasının	-14177
▁yolla	-14178
pektif	-14179
▁sterlin	-14180
▁hesapları	-14181
▁meri	-14182
▁domuz	-14183
▁tuttuğu	-14184
▁akalın	-14185
▁profil	-14186
▁kost	-14187
▁hatalı	-14188
▁mevkisinde	-14189
▁yapmanın	-14190
▁selin	-14191
▁sıkıştır	-14192
dığımı	-14193
▁toyota	-14194
ebir	-14195
▁ismin	-14196
▁ikincisi	-14197
▁başlarında	-14198
▁ilke	-14199
▁televizyonu	-14200
ılmasından	-14201
▁yapacağım	-14202
▁bekliyorum	-14203
▁çocuklarla	-14204
cy	-14205
▁göstermektedir	-14206
tülü	-14207
▁minib	-14208
▁adaletin	-14209
ukrayna	-14210
▁akademi	-14211
▁gereksin	-14212
▁170	-14213
▁görevde	-14214
▁üstlenen	-14215
almanya	-14216
▁bayburt	-14217
▁göstermiş	-14218
meyeceğiz	-14219
▁mahkûm	-14220
▁barbar	-14221
▁bilmeyen	-14222
▁geçip	-14223
▁britanya	-14224
▁dikkatini	-14225
▁fan	-14226
▁get	-14227
▁tavan	-14228
▁hareketlilik	-14229
▁parlamentoda	-14230
▁4,	-14231
▁eda	-14232
▁mih	-14233
▁suçlanan	-14234
▁gebze	-14235
▁aracını	-14236
▁hukuksuz	-14237
▁yetkililerden	-14238
.12	-14239
iano	-14240
▁adaleti	-14241
laşmaya	-14242
▁seslendi	-14243
graf	-14244
▁dsö	-14245
▁kimliğini	-14246
▁hatıra	-14247
▁yapabiliyor	-14248
▁cop	-14249
▁inşaatı	-14250
cumhurbaşkanı	-14251
yılmaz	-14252
elektr	-14253
▁gerisinde	-14254
▁rüt	-14255
▁yandı	-14256
▁açılıyor	-14257
urg	-14258
ılırsa	-14259
▁almadı	-14260
▁parma	-14261
▁oğlunu	-14262
▁seçmenin	-14263
▁teklifini	-14264
▁yapılmasının	-14265
lerince	-14266
▁world	-14267
▁davasının	-14268
▁borçlanma	-14269
▁kırşehir	-14270
▁takımını	-14271
▁soruların	-14272
▁200'	-14273
▁kazayı	-14274
▁gecenin	-14275
▁gözyaşı	-14276
▁kullanması	-14277
▁yaşaya	-14278
▁yapmıştır	-14279
tısı	-14280
▁yarısını	-14281
▁bill	-14282
▁maçlar	-14283
▁topraklarda	-14284
▁diyelim	-14285
▁yaklaştı	-14286
▁gelirse	-14287
▁ettikten	-14288
▁skorla	-14289
▁benims	-14290
▁getirip	-14291
▁birliğini	-14292
eceğinden	-14293
-100	-14294
▁alkan	-14295
gıcı	-14296
▁çevredek	-14297
▁emniyete	-14298
▁etmekle	-14299
▁kullandıkları	-14300
▁çekip	-14301
▁paralar	-14302
▁ateşi	-14303
▁tog	-14304
▁durdurmak	-14305
▁kerkük	-14306
▁çıkmadı	-14307
▁taşeron	-14308
▁ke	-14309
▁ettiğim	-14310
▁artarken	-14311
yük	-14312
▁eminim	-14313
▁deyip	-14314
▁esnafın	-14315
▁barındıran	-14316
▁izo	-14317
▁açıklaya	-14318
▁önerileri	-14319
.2018	-14320
▁boykot	-14321
▁asansör	-14322
▁kullanıldığını	-14323
git	-14324
▁iyimser	-14325
tam	-14326
unacak	-14327
▁olacaktı	-14328
▁ahlaki	-14329
▁koronavirüsle	-14330
▁kg	-14331
▁za	-14332
▁uyarılarda	-14333
▁konseri	-14334
▁bambaşka	-14335
▁izi	-14336
▁emel	-14337
▁niçin	-14338
▁çetinkaya	-14339
▁yep	-14340
▁bağlar	-14341
▁alamayan	-14342
▁vatandaşımızın	-14343
▁necip	-14344
▁seks	-14345
düt	-14346
▁yapıların	-14347
▁anlayışla	-14348
▁yapmaktan	-14349
▁kullanılamaz	-14350
▁duruşmayı	-14351
laz	-14352
apı	-14353
▁turnuvası	-14354
▁atay	-14355
▁acel	-14356
▁düşünün	-14357
▁adaylığı	-14358
▁hastalıkların	-14359
▁gizem	-14360
▁söndürüldü	-14361
▁kremlin	-14362
▁yanaş	-14363
▁başladıklarını	-14364
akp	-14365
▁kobani	-14366
▁olursak	-14367
▁duyul	-14368
▁sesli	-14369
▁sayılan	-14370
▁topa	-14371
▁evler	-14372
▁ciddiyet	-14373
▁1-2	-14374
▁rem	-14375
▁ayrılma	-14376
▁hazırlayan	-14377
▁zinciri	-14378
▁artmasına	-14379
amik	-14380
▁güvenliğinin	-14381
▁ziyaretçiler	-14382
▁bahsetti	-14383
▁hazırlıkları	-14384
▁euroluk	-14385
▁katolik	-14386
▁yelken	-14387
▁ısrarla	-14388
▁başındaki	-14389
▁haberlerin	-14390
▁hedefine	-14391
▁tram	-14392
[...]
